{
  "version": "1.0",
  "truncation": null,
  "padding": null,
  "added_tokens": [
    {
      "id": 0,
      "content": "<pad>",
      "single_word": false,
      "lstrip": false,
      "rstrip": false,
      "normalized": false,
      "special": true
    },
    {
      "id": 1,
      "content": "<eos>",
      "single_word": false,
      "lstrip": false,
      "rstrip": false,
      "normalized": false,
      "special": true
    },
    {
      "id": 2,
      "content": "<bos>",
      "single_word": false,
      "lstrip": false,
      "rstrip": false,
      "normalized": false,
      "special": true
    },
    {
      "id": 3,
      "content": "<unk>",
      "single_word": false,
      "lstrip": false,
      "rstrip": false,
      "normalized": false,
      "special": true
    },
    {
      "id": 4,
      "content": "<MEM>",
      "single_word": false,
      "lstrip": false,
      "rstrip": false,
      "normalized": false,
      "special": true
    },
    {
      "id": 5,
      "content": "</MEM>",
      "single_word": false,
      "lstrip": false,
      "rstrip": false,
      "normalized": false,
      "special": true
    },
    {
      "id": 6,
      "content": "<NOOP>",
      "single_word": false,
      "lstrip": false,
      "rstrip": false,
      "normalized": false,
      "special": true
    },
    {
      "id": 7,
      "content": "<RESERVED_7>",
      "single_word": false,
      "lstrip": false,
      "rstrip": false,
      "normalized": false,
      "special": true
    },
    {
      "id": 8,
      "content": "<RESERVED_8>",
      "single_word": false,
      "lstrip": false,
      "rstrip": false,
      "normalized": false,
      "special": true
    },
    {
      "id": 9,
      "content": "<RESERVED_9>",
      "single_word": false,
      "lstrip": false,
      "rstrip": false,
      "normalized": false,
      "special": true
    },
    {
      "id": 10,
      "content": "<RESERVED_10>",
      "single_word": false,
      "lstrip": false,
      "rstrip": false,
      "normalized": false,
      "special": true
    },
    {
      "id": 11,
      "content": "<RESERVED_11>",
      "single_word": false,
      "lstrip": false,
      "rstrip": false,
      "normalized": false,
      "special": true
    },
    {
      "id": 12,
      "content": "<RESERVED_12>",
      "single_word": false,
      "lstrip": false,
      "rstrip": false,
      "normalized": false,
      "special": true
    },
    {
      "id": 13,
      "content": "<RESERVED_13>",
      "single_word": false,
      "lstrip": false,
      "rstrip": false,
      "normalized": false,
      "special": true
    },
    {
      "id": 14,
      "content": "<RESERVED_14>",
      "single_word": false,
      "lstrip": false,
      "rstrip": false,
      "normalized": false,
      "special": true
    },
    {
      "id": 15,
      "content": "<RESERVED_15>",
      "single_word": false,
      "lstrip": false,
      "rstrip": false,
      "normalized": false,
      "special": true
    },
    {
      "id": 16,
      "content": "<RESERVED_16>",
      "single_word": false,
      "lstrip": false,
      "rstrip": false,
      "normalized": false,
      "special": true
    },
    {
      "id": 17,
      "content": "<RESERVED_17>",
      "single_word": false,
      "lstrip": false,
      "rstrip": false,
      "normalized": false,
      "special": true
    },
    {
      "id": 18,
      "content": "<RESERVED_18>",
      "single_word": false,
      "lstrip": false,
      "rstrip": false,
      "normalized": false,
      "special": true
    },
    {
      "id": 19,
      "content": "<RESERVED_19>",
      "single_word": false,
      "lstrip": false,
      "rstrip": false,
      "normalized": false,
      "special": true
    },
    {
      "id": 20,
      "content": "<RESERVED_20>",
      "single_word": false,
      "lstrip": false,
      "rstrip": false,
      "normalized": false,
      "special": true
    },
    {
      "id": 21,
      "content": "<RESERVED_21>",
      "single_word": false,
      "lstrip": false,
      "rstrip": false,
      "normalized": false,
      "special": true
    },
    {
      "id": 22,
      "content": "<RESERVED_22>",
      "single_word": false,
      "lstrip": false,
      "rstrip": false,
      "normalized": false,
      "special": true
    },
    {
      "id": 23,
      "content": "<RESERVED_23>",
      "single_word": false,
      "lstrip": false,
      "rstrip": false,
      "normalized": false,
      "special": true
    },
    {
      "id": 24,
      "content": "<RESERVED_24>",
      "single_word": false,
      "lstrip": false,
      "rstrip": false,
      "normalized": false,
      "special": true
    },
    {
      "id": 25,
      "content": "<RESERVED_25>",
      "single_word": false,
      "lstrip": false,
      "rstrip": false,
      "normalized": false,
      "special": true
    },
    {
      "id": 26,
      "content": "<RESERVED_26>",
      "single_word": false,
      "lstrip": false,
      "rstrip": false,
      "normalized": false,
      "special": true
    },
    {
      "id": 27,
      "content": "<RESERVED_27>",
      "single_word": false,
      "lstrip": false,
      "rstrip": false,
      "normalized": false,
      "special": true
    },
    {
      "id": 28,
      "content": "<RESERVED_28>",
      "single_word": false,
      "lstrip": false,
      "rstrip": false,
      "normalized": false,
      "special": true
    },
    {
      "id": 29,
      "content": "<RESERVED_29>",
      "single_word": false,
      "lstrip": false,
      "rstrip": false,
      "normalized": false,
      "special": true
    },
    {
      "id": 30,
      "content": "<RESERVED_30>",
      "single_word": false,
      "lstrip": false,
      "rstrip": false,
      "normalized": false,
      "special": true
    },
    {
      "id": 31,
      "content": "<RESERVED_31>",
      "single_word": false,
      "lstrip": false,
      "rstrip": false,
      "normalized": false,
      "special": true
    },
    {
      "id": 32,
      "content": "<RESERVED_32>",
      "single_word": false,
      "lstrip": false,
      "rstrip": false,
      "normalized": false,
      "special": true
    },
    {
      "id": 33,
      "content": "<RESERVED_33>",
      "single_word": false,
      "lstrip": false,
      "rstrip": false,
      "normalized": false,
      "special": true
    },
    {
      "id": 34,
      "content": "<RESERVED_34>",
      "single_word": false,
      "lstrip": false,
      "rstrip": false,
      "normalized": false,
      "special": true
    },
    {
      "id": 35,
      "content": "<RESERVED_35>",
      "single_word": false,
      "lstrip": false,
      "rstrip": false,
      "normalized": false,
      "special": true
    },
    {
      "id": 36,
      "content": "<RESERVED_36>",
      "single_word": false,
      "lstrip": false,
      "rstrip": false,
      "normalized": false,
      "special": true
    },
    {
      "id": 37,
      "content": "<RESERVED_37>",
      "single_word": false,
      "lstrip": false,
      "rstrip": false,
      "normalized": false,
      "special": true
    },
    {
      "id": 38,
      "content": "<RESERVED_38>",
      "single_word": false,
      "lstrip": false,
      "rstrip": false,
      "normalized": false,
      "special": true
    },
    {
      "id": 39,
      "content": "<RESERVED_39>",
      "single_word": false,
      "lstrip": false,
      "rstrip": false,
      "normalized": false,
      "special": true
    },
    {
      "id": 40,
      "content": "<RESERVED_40>",
      "single_word": false,
      "lstrip": false,
      "rstrip": false,
      "normalized": false,
      "special": true
    },
    {
      "id": 41,
      "content": "<RESERVED_41>",
      "single_word": false,
      "lstrip": false,
      "rstrip": false,
      "normalized": false,
      "special": true
    },
    {
      "id": 42,
      "content": "<RESERVED_42>",
      "single_word": false,
      "lstrip": false,
      "rstrip": false,
      "normalized": false,
      "special": true
    },
    {
      "id": 43,
      "content": "<RESERVED_43>",
      "single_word": false,
      "lstrip": false,
      "rstrip": false,
      "normalized": false,
      "special": true
    },
    {
      "id": 44,
      "content": "<RESERVED_44>",
      "single_word": false,
      "lstrip": false,
      "rstrip": false,
      "normalized": false,
      "special": true
    },
    {
      "id": 45,
      "content": "<RESERVED_45>",
      "single_word": false,
      "lstrip": false,
      "rstrip": false,
      "normalized": false,
      "special": true
    },
    {
      "id": 46,
      "content": "<RESERVED_46>",
      "single_word": false,
      "lstrip": false,
      "rstrip": false,
      "normalized": false,
      "special": true
    },
    {
      "id": 47,
      "content": "<RESERVED_47>",
      "single_word": false,
      "lstrip": false,
      "rstrip": false,
      "normalized": false,
      "special": true
    },
    {
      "id": 48,
      "content": "<RESERVED_48>",
      "single_word": false,
      "lstrip": false,
      "rstrip": false,
      "normalized": false,
      "special": true
    },
    {
      "id": 49,
      "content": "<RESERVED_49>",
      "single_word": false,
      "lstrip": false,
      "rstrip": false,
      "normalized": false,
      "special": true
    },
    {
      "id": 50,
      "content": "<RESERVED_50>",
      "single_word": false,
      "lstrip": false,
      "rstrip": false,
      "normalized": false,
      "special": true
    },
    {
      "id": 51,
      "content": "<RESERVED_51>",
      "single_word": false,
      "lstrip": false,
      "rstrip": false,
      "normalized": false,
      "special": true
    },
    {
      "id": 52,
      "content": "<RESERVED_52>",
      "single_word": false,
      "lstrip": false,
      "rstrip": false,
      "normalized": false,
      "special": true
    },
    {
      "id": 53,
      "content": "<RESERVED_53>",
      "single_word": false,
      "lstrip": false,
      "rstrip": false,
      "normalized": false,
      "special": true
    },
    {
      "id": 54,
      "content": "<RESERVED_54>",
      "single_word": false,
      "lstrip": false,
      "rstrip": false,
      "normalized": false,
      "special": true
    },
    {
      "id": 55,
      "content": "<RESERVED_55>",
      "single_word": false,
      "lstrip": false,
      "rstrip": false,
      "normalized": false,
      "special": true
    },
    {
      "id": 56,
      "content": "<RESERVED_56>",
      "single_word": false,
      "lstrip": false,
      "rstrip": false,
      "normalized": false,
      "special": true
    },
    {
      "id": 57,
      "content": "<RESERVED_57>",
      "single_word": false,
      "lstrip": false,
      "rstrip": false,
      "normalized": false,
      "special": true
    },
    {
      "id": 58,
      "content": "<RESERVED_58>",
      "single_word": false,
      "lstrip": false,
      "rstrip": false,
      "normalized": false,
      "special": true
    },
    {
      "id": 59,
      "content": "<RESERVED_59>",
      "single_word": false,
      "lstrip": false,
      "rstrip": false,
      "normalized": false,
      "special": true
    },
    {
      "id": 60,
      "content": "<RESERVED_60>",
      "single_word": false,
      "lstrip": false,
      "rstrip": false,
      "normalized": false,
      "special": true
    },
    {
      "id": 61,
      "content": "<RESERVED_61>",
      "single_word": false,
      "lstrip": false,
      "rstrip": false,
      "normalized": false,
      "special": true
    },
    {
      "id": 62,
      "content": "<RESERVED_62>",
      "single_word": false,
      "lstrip": false,
      "rstrip": false,
      "normalized": false,
      "special": true
    },
    {
      "id": 63,
      "content": "<RESERVED_63>",
      "single_word": false,
      "lstrip": false,
      "rstrip": false,
      "normalized": false,
      "special": true
    },
    {
      "id": 64,
      "content": "<RESERVED_64>",
      "single_word": false,
      "lstrip": false,
      "rstrip": false,
      "normalized": false,
      "special": true
    },
    {
      "id": 65,
      "content": "<RESERVED_65>",
      "single_word": false,
      "lstrip": false,
      "rstrip": false,
      "normalized": false,
      "special": true
    },
    {
      "id": 66,
      "content": "<RESERVED_66>",
      "single_word": false,
      "lstrip": false,
      "rstrip": false,
      "normalized": false,
      "special": true
    },
    {
      "id": 67,
      "content": "<RESERVED_67>",
      "single_word": false,
      "lstrip": false,
      "rstrip": false,
      "normalized": false,
      "special": true
    },
    {
      "id": 68,
      "content": "<RESERVED_68>",
      "single_word": false,
      "lstrip": false,
      "rstrip": false,
      "normalized": false,
      "special": true
    },
    {
      "id": 69,
      "content": "<RESERVED_69>",
      "single_word": false,
      "lstrip": false,
      "rstrip": false,
      "normalized": false,
      "special": true
    },
    {
      "id": 70,
      "content": "<RESERVED_70>",
      "single_word": false,
      "lstrip": false,
      "rstrip": false,
      "normalized": false,
      "special": true
    },
    {
      "id": 71,
      "content": "<RESERVED_71>",
      "single_word": false,
      "lstrip": false,
      "rstrip": false,
      "normalized": false,
      "special": true
    },
    {
      "id": 72,
      "content": "<RESERVED_72>",
      "single_word": false,
      "lstrip": false,
      "rstrip": false,
      "normalized": false,
      "special": true
    },
    {
      "id": 73,
      "content": "<RESERVED_73>",
      "single_word": false,
      "lstrip": false,
      "rstrip": false,
      "normalized": false,
      "special": true
    },
    {
      "id": 74,
      "content": "<RESERVED_74>",
      "single_word": false,
      "lstrip": false,
      "rstrip": false,
      "normalized": false,
      "special": true
    },
    {
      "id": 75,
      "content": "<RESERVED_75>",
      "single_word": false,
      "lstrip": false,
      "rstrip": false,
      "normalized": false,
      "special": true
    },
    {
      "id": 76,
      "content": "<RESERVED_76>",
      "single_word": false,
      "lstrip": false,
      "rstrip": false,
      "normalized": false,
      "special": true
    },
    {
      "id": 77,
      "content": "<RESERVED_77>",
      "single_word": false,
      "lstrip": false,
      "rstrip": false,
      "normalized": false,
      "special": true
    },
    {
      "id": 78,
      "content": "<RESERVED_78>",
      "single_word": false,
      "lstrip": false,
      "rstrip": false,
      "normalized": false,
      "special": true
    },
    {
      "id": 79,
      "content": "<RESERVED_79>",
      "single_word": false,
      "lstrip": false,
      "rstrip": false,
      "normalized": false,
      "special": true
    },
    {
      "id": 80,
      "content": "<RESERVED_80>",
      "single_word": false,
      "lstrip": false,
      "rstrip": false,
      "normalized": false,
      "special": true
    },
    {
      "id": 81,
      "content": "<RESERVED_81>",
      "single_word": false,
      "lstrip": false,
      "rstrip": false,
      "normalized": false,
      "special": true
    },
    {
      "id": 82,
      "content": "<RESERVED_82>",
      "single_word": false,
      "lstrip": false,
      "rstrip": false,
      "normalized": false,
      "special": true
    },
    {
      "id": 83,
      "content": "<RESERVED_83>",
      "single_word": false,
      "lstrip": false,
      "rstrip": false,
      "normalized": false,
      "special": true
    },
    {
      "id": 84,
      "content": "<RESERVED_84>",
      "single_word": false,
      "lstrip": false,
      "rstrip": false,
      "normalized": false,
      "special": true
    },
    {
      "id": 85,
      "content": "<RESERVED_85>",
      "single_word": false,
      "lstrip": false,
      "rstrip": false,
      "normalized": false,
      "special": true
    },
    {
      "id": 86,
      "content": "<RESERVED_86>",
      "single_word": false,
      "lstrip": false,
      "rstrip": false,
      "normalized": false,
      "special": true
    },
    {
      "id": 87,
      "content": "<RESERVED_87>",
      "single_word": false,
      "lstrip": false,
      "rstrip": false,
      "normalized": false,
      "special": true
    },
    {
      "id": 88,
      "content": "<RESERVED_88>",
      "single_word": false,
      "lstrip": false,
      "rstrip": false,
      "normalized": false,
      "special": true
    },
    {
      "id": 89,
      "content": "<RESERVED_89>",
      "single_word": false,
      "lstrip": false,
      "rstrip": false,
      "normalized": false,
      "special": true
    },
    {
      "id": 90,
      "content": "<RESERVED_90>",
      "single_word": false,
      "lstrip": false,
      "rstrip": false,
      "normalized": false,
      "special": true
    },
    {
      "id": 91,
      "content": "<RESERVED_91>",
      "single_word": false,
      "lstrip": false,
      "rstrip": false,
      "normalized": false,
      "special": true
    },
    {
      "id": 92,
      "content": "<RESERVED_92>",
      "single_word": false,
      "lstrip": false,
      "rstrip": false,
      "normalized": false,
      "special": true
    },
    {
      "id": 93,
      "content": "<RESERVED_93>",
      "single_word": false,
      "lstrip": false,
      "rstrip": false,
      "normalized": false,
      "special": true
    },
    {
      "id": 94,
      "content": "<RESERVED_94>",
      "single_word": false,
      "lstrip": false,
      "rstrip": false,
      "normalized": false,
      "special": true
    },
    {
      "id": 95,
      "content": "<RESERVED_95>",
      "single_word": false,
      "lstrip": false,
      "rstrip": false,
      "normalized": false,
      "special": true
    },
    {
      "id": 96,
      "content": "<RESERVED_96>",
      "single_word": false,
      "lstrip": false,
      "rstrip": false,
      "normalized": false,
      "special": true
    },
    {
      "id": 97,
      "content": "<RESERVED_97>",
      "single_word": false,
      "lstrip": false,
      "rstrip": false,
      "normalized": false,
      "special": true
    },
    {
      "id": 98,
      "content": "<RESERVED_98>",
      "single_word": false,
      "lstrip": false,
      "rstrip": false,
      "normalized": false,
      "special": true
    },
    {
      "id": 99,
      "content": "<RESERVED_99>",
      "single_word": false,
      "lstrip": false,
      "rstrip": false,
      "normalized": false,
      "special": true
    },
    {
      "id": 100,
      "content": "<RESERVED_100>",
      "single_word": false,
      "lstrip": false,
      "rstrip": false,
      "normalized": false,
      "special": true
    },
    {
      "id": 101,
      "content": "<RESERVED_101>",
      "single_word": false,
      "lstrip": false,
      "rstrip": false,
      "normalized": false,
      "special": true
    },
    {
      "id": 102,
      "content": "<RESERVED_102>",
      "single_word": false,
      "lstrip": false,
      "rstrip": false,
      "normalized": false,
      "special": true
    },
    {
      "id": 103,
      "content": "<RESERVED_103>",
      "single_word": false,
      "lstrip": false,
      "rstrip": false,
      "normalized": false,
      "special": true
    },
    {
      "id": 104,
      "content": "<RESERVED_104>",
      "single_word": false,
      "lstrip": false,
      "rstrip": false,
      "normalized": false,
      "special": true
    },
    {
      "id": 105,
      "content": "<RESERVED_105>",
      "single_word": false,
      "lstrip": false,
      "rstrip": false,
      "normalized": false,
      "special": true
    },
    {
      "id": 106,
      "content": "<RESERVED_106>",
      "single_word": false,
      "lstrip": false,
      "rstrip": false,
      "normalized": false,
      "special": true
    },
    {
      "id": 107,
      "content": "<RESERVED_107>",
      "single_word": false,
      "lstrip": false,
      "rstrip": false,
      "normalized": false,
      "special": true
    },
    {
      "id": 108,
      "content": "<RESERVED_108>",
      "single_word": false,
      "lstrip": false,
      "rstrip": false,
      "normalized": false,
      "special": true
    },
    {
      "id": 109,
      "content": "<RESERVED_109>",
      "single_word": false,
      "lstrip": false,
      "rstrip": false,
      "normalized": false,
      "special": true
    },
    {
      "id": 110,
      "content": "<RESERVED_110>",
      "single_word": false,
      "lstrip": false,
      "rstrip": false,
      "normalized": false,
      "special": true
    },
    {
      "id": 111,
      "content": "<RESERVED_111>",
      "single_word": false,
      "lstrip": false,
      "rstrip": false,
      "normalized": false,
      "special": true
    },
    {
      "id": 112,
      "content": "<RESERVED_112>",
      "single_word": false,
      "lstrip": false,
      "rstrip": false,
      "normalized": false,
      "special": true
    },
    {
      "id": 113,
      "content": "<RESERVED_113>",
      "single_word": false,
      "lstrip": false,
      "rstrip": false,
      "normalized": false,
      "special": true
    },
    {
      "id": 114,
      "content": "<RESERVED_114>",
      "single_word": false,
      "lstrip": false,
      "rstrip": false,
      "normalized": false,
      "special": true
    },
    {
      "id": 115,
      "content": "<RESERVED_115>",
      "single_word": false,
      "lstrip": false,
      "rstrip": false,
      "normalized": false,
      "special": true
    },
    {
      "id": 116,
      "content": "<RESERVED_116>",
      "single_word": false,
      "lstrip": false,
      "rstrip": false,
      "normalized": false,
      "special": true
    },
    {
      "id": 117,
      "content": "<RESERVED_117>",
      "single_word": false,
      "lstrip": false,
      "rstrip": false,
      "normalized": false,
      "special": true
    },
    {
      "id": 118,
      "content": "<RESERVED_118>",
      "single_word": false,
      "lstrip": false,
      "rstrip": false,
      "normalized": false,
      "special": true
    },
    {
      "id": 119,
      "content": "<RESERVED_119>",
      "single_word": false,
      "lstrip": false,
      "rstrip": false,
      "normalized": false,
      "special": true
    },
    {
      "id": 120,
      "content": "<RESERVED_120>",
      "single_word": false,
      "lstrip": false,
      "rstrip": false,
      "normalized": false,
      "special": true
    },
    {
      "id": 121,
      "content": "<RESERVED_121>",
      "single_word": false,
      "lstrip": false,
      "rstrip": false,
      "normalized": false,
      "special": true
    },
    {
      "id": 122,
      "content": "<RESERVED_122>",
      "single_word": false,
      "lstrip": false,
      "rstrip": false,
      "normalized": false,
      "special": true
    },
    {
      "id": 123,
      "content": "<RESERVED_123>",
      "single_word": false,
      "lstrip": false,
      "rstrip": false,
      "normalized": false,
      "special": true
    },
    {
      "id": 124,
      "content": "<RESERVED_124>",
      "single_word": false,
      "lstrip": false,
      "rstrip": false,
      "normalized": false,
      "special": true
    },
    {
      "id": 125,
      "content": "<RESERVED_125>",
      "single_word": false,
      "lstrip": false,
      "rstrip": false,
      "normalized": false,
      "special": true
    },
    {
      "id": 126,
      "content": "<RESERVED_126>",
      "single_word": false,
      "lstrip": false,
      "rstrip": false,
      "normalized": false,
      "special": true
    },
    {
      "id": 127,
      "content": "<RESERVED_127>",
      "single_word": false,
      "lstrip": false,
      "rstrip": false,
      "normalized": false,
      "special": true
    }
  ],
  "normalizer": null,
  "pre_tokenizer": {
    "type": "ByteLevel",
    "add_prefix_space": false,
    "trim_offsets": true,
    "use_regex": true
  },
  "post_processor": null,
  "decoder": {
    "type": "ByteLevel",
    "add_prefix_space": true,
    "trim_offsets": true,
    "use_regex": true
  },
  "model": {
    "type": "BPE",
    "dropout": null,
    "unk_token": "<unk>",
    "continuing_subword_prefix": null,
    "end_of_word_suffix": null,
    "fuse_unk": false,
    "byte_fallback": false,
    "ignore_merges": false,
    "vocab": {
      "<pad>": 0,
      "<eos>": 1,
      "<bos>": 2,
      "<unk>": 3,
      "<MEM>": 4,
      "</MEM>": 5,
      "<NOOP>": 6,
      "<RESERVED_7>": 7,
      "<RESERVED_8>": 8,
      "<RESERVED_9>": 9,
      "<RESERVED_10>": 10,
      "<RESERVED_11>": 11,
      "<RESERVED_12>": 12,
      "<RESERVED_13>": 13,
      "<RESERVED_14>": 14,
      "<RESERVED_15>": 15,
      "<RESERVED_16>": 16,
      "<RESERVED_17>": 17,
      "<RESERVED_18>": 18,
      "<RESERVED_19>": 19,
      "<RESERVED_20>": 20,
      "<RESERVED_21>": 21,
      "<RESERVED_22>": 22,
      "<RESERVED_23>": 23,
      "<RESERVED_24>": 24,
      "<RESERVED_25>": 25,
      "<RESERVED_26>": 26,
      "<RESERVED_27>": 27,
      "<RESERVED_28>": 28,
      "<RESERVED_29>": 29,
      "<RESERVED_30>": 30,
      "<RESERVED_31>": 31,
      "<RESERVED_32>": 32,
      "<RESERVED_33>": 33,
      "<RESERVED_34>": 34,
      "<RESERVED_35>": 35,
      "<RESERVED_36>": 36,
      "<RESERVED_37>": 37,
      "<RESERVED_38>": 38,
      "<RESERVED_39>": 39,
      "<RESERVED_40>": 40,
      "<RESERVED_41>": 41,
      "<RESERVED_42>": 42,
      "<RESERVED_43>": 43,
      "<RESERVED_44>": 44,
      "<RESERVED_45>": 45,
      "<RESERVED_46>": 46,
      "<RESERVED_47>": 47,
      "<RESERVED_48>": 48,
      "<RESERVED_49>": 49,
      "<RESERVED_50>": 50,
      "<RESERVED_51>": 51,
      "<RESERVED_52>": 52,
      "<RESERVED_53>": 53,
      "<RESERVED_54>": 54,
      "<RESERVED_55>": 55,
      "<RESERVED_56>": 56,
      "<RESERVED_57>": 57,
      "<RESERVED_58>": 58,
      "<RESERVED_59>": 59,
      "<RESERVED_60>": 60,
      "<RESERVED_61>": 61,
      "<RESERVED_62>": 62,
      "<RESERVED_63>": 63,
      "<RESERVED_64>": 64,
      "<RESERVED_65>": 65,
      "<RESERVED_66>": 66,
      "<RESERVED_67>": 67,
      "<RESERVED_68>": 68,
      "<RESERVED_69>": 69,
      "<RESERVED_70>": 70,
      "<RESERVED_71>": 71,
      "<RESERVED_72>": 72,
      "<RESERVED_73>": 73,
      "<RESERVED_74>": 74,
      "<RESERVED_75>": 75,
      "<RESERVED_76>": 76,
      "<RESERVED_77>": 77,
      "<RESERVED_78>": 78,
      "<RESERVED_79>": 79,
      "<RESERVED_80>": 80,
      "<RESERVED_81>": 81,
      "<RESERVED_82>": 82,
      "<RESERVED_83>": 83,
      "<RESERVED_84>": 84,
      "<RESERVED_85>": 85,
      "<RESERVED_86>": 86,
      "<RESERVED_87>": 87,
      "<RESERVED_88>": 88,
      "<RESERVED_89>": 89,
      "<RESERVED_90>": 90,
      "<RESERVED_91>": 91,
      "<RESERVED_92>": 92,
      "<RESERVED_93>": 93,
      "<RESERVED_94>": 94,
      "<RESERVED_95>": 95,
      "<RESERVED_96>": 96,
      "<RESERVED_97>": 97,
      "<RESERVED_98>": 98,
      "<RESERVED_99>": 99,
      "<RESERVED_100>": 100,
      "<RESERVED_101>": 101,
      "<RESERVED_102>": 102,
      "<RESERVED_103>": 103,
      "<RESERVED_104>": 104,
      "<RESERVED_105>": 105,
      "<RESERVED_106>": 106,
      "<RESERVED_107>": 107,
      "<RESERVED_108>": 108,
      "<RESERVED_109>": 109,
      "<RESERVED_110>": 110,
      "<RESERVED_111>": 111,
      "<RESERVED_112>": 112,
      "<RESERVED_113>": 113,
      "<RESERVED_114>": 114,
      "<RESERVED_115>": 115,
      "<RESERVED_116>": 116,
      "<RESERVED_117>": 117,
      "<RESERVED_118>": 118,
      "<RESERVED_119>": 119,
      "<RESERVED_120>": 120,
      "<RESERVED_121>": 121,
      "<RESERVED_122>": 122,
      "<RESERVED_123>": 123,
      "<RESERVED_124>": 124,
      "<RESERVED_125>": 125,
      "<RESERVED_126>": 126,
      "<RESERVED_127>": 127,
      "!": 128,
      "\"": 129,
      "#": 130,
      "$": 131,
      "%": 132,
      "&": 133,
      "'": 134,
      "(": 135,
      ")": 136,
      "*": 137,
      "+": 138,
      ",": 139,
      "-": 140,
      ".": 141,
      "/": 142,
      "0": 143,
      "1": 144,
      "2": 145,
      "3": 146,
      "4": 147,
      "5": 148,
      "6": 149,
      "7": 150,
      "8": 151,
      "9": 152,
      ":": 153,
      ";": 154,
      "<": 155,
      "=": 156,
      ">": 157,
      "?": 158,
      "A": 159,
      "B": 160,
      "C": 161,
      "D": 162,
      "E": 163,
      "F": 164,
      "G": 165,
      "H": 166,
      "I": 167,
      "J": 168,
      "K": 169,
      "L": 170,
      "M": 171,
      "N": 172,
      "O": 173,
      "P": 174,
      "Q": 175,
      "R": 176,
      "S": 177,
      "T": 178,
      "U": 179,
      "V": 180,
      "W": 181,
      "X": 182,
      "Y": 183,
      "Z": 184,
      "[": 185,
      "\\": 186,
      "]": 187,
      "_": 188,
      "`": 189,
      "a": 190,
      "b": 191,
      "c": 192,
      "d": 193,
      "e": 194,
      "f": 195,
      "g": 196,
      "h": 197,
      "i": 198,
      "j": 199,
      "k": 200,
      "l": 201,
      "m": 202,
      "n": 203,
      "o": 204,
      "p": 205,
      "q": 206,
      "r": 207,
      "s": 208,
      "t": 209,
      "u": 210,
      "v": 211,
      "w": 212,
      "x": 213,
      "y": 214,
      "z": 215,
      "{": 216,
      "|": 217,
      "}": 218,
      "~": 219,
      "¡": 220,
      "¢": 221,
      "£": 222,
      "¦": 223,
      "¨": 224,
      "©": 225,
      "«": 226,
      "¬": 227,
      "¯": 228,
      "°": 229,
      "±": 230,
      "³": 231,
      "´": 232,
      "¶": 233,
      "¸": 234,
      "¹": 235,
      "»": 236,
      "½": 237,
      "¾": 238,
      "¿": 239,
      "Â": 240,
      "Ã": 241,
      "Å": 242,
      "Ë": 243,
      "â": 244,
      "ĉ": 245,
      "Ċ": 246,
      "Ġ": 247,
      "Ģ": 248,
      "Ĥ": 249,
      "ĥ": 250,
      "Ħ": 251,
      "Ĩ": 252,
      "ĵ": 253,
      "ĺ": 254,
      "Ļ": 255,
      "ļ": 256,
      "ľ": 257,
      "Ŀ": 258,
      "ł": 259,
      "Ń": 260,
      "he": 261,
      "Ġt": 262,
      "Ġa": 263,
      "Ġs": 264,
      "Ġw": 265,
      "nd": 266,
      "Ġthe": 267,
      "ed": 268,
      "Ġand": 269,
      "Ġto": 270,
      "Ġb": 271,
      "in": 272,
      "Ġh": 273,
      "Ġwa": 274,
      "re": 275,
      "ou": 276,
      "Ġf": 277,
      "it": 278,
      "Ġl": 279,
      "Ġc": 280,
      "Ġd": 281,
      "er": 282,
      "Ġhe": 283,
      "Ġm": 284,
      "Ġp": 285,
      "Ġwas": 286,
      "om": 287,
      "ĠT": 288,
      "Ġo": 289,
      "ay": 290,
      "ar": 291,
      "is": 292,
      "ing": 293,
      "il": 294,
      "Ġg": 295,
      "id": 296,
      "at": 297,
      "en": 298,
      "Ġn": 299,
      "Ġsa": 300,
      "Ġha": 301,
      "ĠThe": 302,
      "ĠS": 303,
      "an": 304,
      "im": 305,
      "or": 306,
      "on": 307,
      "Ġit": 308,
      "Ġth": 309,
      "ll": 310,
      "le": 311,
      "ĠH": 312,
      "ot": 313,
      "Ġher": 314,
      "et": 315,
      "ir": 316,
      "ĠShe": 317,
      "es": 318,
      "ĠHe": 319,
      "Ġin": 320,
      "ver": 321,
      "ut": 322,
      "ow": 323,
      "ĠThey": 324,
      "ck": 325,
      "Ġe": 326,
      "Ġy": 327,
      "Ġu": 328,
      "ld": 329,
      "oo": 330,
      "Ġsaid": 331,
      "ily": 332,
      "ig": 333,
      "Ġr": 334,
      "Ġ\"": 335,
      "Ġbe": 336,
      "am": 337,
      "ĠI": 338,
      "Ġst": 339,
      "ke": 340,
      "ce": 341,
      "ve": 342,
      "Ġshe": 343,
      "pp": 344,
      "ith": 345,
      "Ġwith": 346,
      "Lily": 347,
      "On": 348,
      "Ġon": 349,
      "Ġyou": 350,
      "Ġof": 351,
      "ked": 352,
      "ri": 353,
      "nt": 354,
      "Ġpl": 355,
      "Ġhis": 356,
      "Ġso": 357,
      "ad": 358,
      "very": 359,
      "Ġday": 360,
      "Ġthat": 361,
      "Ġup": 362,
      "Ġplay": 363,
      "Ġhad": 364,
      "st": 365,
      "Ġthey": 366,
      "ĠLily": 367,
      "Ġwe": 368,
      "Ġmom": 369,
      "ĠB": 370,
      "Ġfor": 371,
      "el": 372,
      "un": 373,
      "ould": 374,
      "'s": 375,
      "The": 376,
      "my": 377,
      "Ġli": 378,
      "ch": 379,
      "Ġhapp": 380,
      "Ġwant": 381,
      "ent": 382,
      "Ġsh": 383,
      "itt": 384,
      "out": 385,
      "her": 386,
      "Ġnot": 387,
      "Ġdo": 388,
      "se": 389,
      "ly": 390,
      "ome": 391,
      "Ġvery": 392,
      "ound": 393,
      "end": 394,
      "all": 395,
      "Ġwh": 396,
      "ime": 397,
      "Ġk": 398,
      "ittle": 399,
      "Ġtime": 400,
      "al": 401,
      "Ġlittle": 402,
      "ĠM": 403,
      "Ġne": 404,
      "ht": 405,
      "Ġthere": 406,
      "Ġis": 407,
      "Ġhappy": 408,
      "Ġre": 409,
      "Ġbig": 410,
      "Ġsm": 411,
      "ĠIt": 412,
      "Ġbut": 413,
      "ĠĊ": 414,
      "Ġan": 415,
      "ra": 416,
      "Ġsaw": 417,
      "ry": 418,
      ".\"": 419,
      "riend": 420,
      "Ġfriend": 421,
      "Ġas": 422,
      "ack": 423,
      "One": 424,
      "ide": 425,
      "ake": 426,
      "'t": 427,
      "ug": 428,
      "!\"": 429,
      "Ġloo": 430,
      "Ġwere": 431,
      "ter": 432,
      "ved": 433,
      "ore": 434,
      "Ġlo": 435,
      "Once": 436,
      "ec": 437,
      "Ġtoo": 438,
      "Ġhim": 439,
      "Ġbo": 440,
      "Ġgo": 441,
      "Ġse": 442,
      "Ġare": 443,
      "Ġj": 444,
      "irl": 445,
      "ard": 446,
      "Ġwanted": 447,
      "ill": 448,
      "ĠTim": 449,
      "Ġthem": 450,
      "Ġgirl": 451,
      "Ġupon": 452,
      "Ġout": 453,
      "Ġat": 454,
      "Ġtheir": 455,
      "ur": 456,
      "ind": 457,
      "fu": 458,
      "way": 459,
      "ĠA": 460,
      "Ġdid": 461,
      "Ġsp": 462,
      "Ġsmil": 463,
      "Ġcould": 464,
      "hen": 465,
      "Ġhave": 466,
      "ain": 467,
      "art": 468,
      "hed": 469,
      "Ġex": 470,
      "rom": 471,
      "Ġar": 472,
      "Ġcan": 473,
      "Ġwent": 474,
      "ic": 475,
      "ĠBen": 476,
      "lp": 477,
      "ful": 478,
      "ĠJ": 479,
      "ood": 480,
      "?\"": 481,
      "Ġfriends": 482,
      "hing": 483,
      "ight": 484,
      "Ġnam": 485,
      "Ġkn": 486,
      "Ġall": 487,
      "Ġhelp": 488,
      "Ġsay": 489,
      "um": 490,
      "one": 491,
      "ark": 492,
      "Ġback": 493,
      "You": 494,
      "ĠTom": 495,
      "Ġcl": 496,
      "Ġfun": 497,
      "are": 498,
      "Ġno": 499,
      "Ġle": 500,
      "op": 501,
      "Ġsc": 502,
      "Ġal": 503,
      "Ġsmiled": 504,
      "Ġnamed": 505,
      "oug": 506,
      "Ġman": 507,
      "elt": 508,
      "Ġloved": 509,
      "side": 510,
      "ick": 511,
      "ĠOne": 512,
      "Ġtoy": 513,
      "Ġlike": 514,
      "Ġasked": 515,
      "Ġfelt": 516,
      "Ġfe": 517,
      "Ġlooked": 518,
      "Ġsee": 519,
      "Ġme": 520,
      "Ġsome": 521,
      "Ġaround": 522,
      "ame": 523,
      "omet": 524,
      "ĠW": 525,
      "Ġro": 526,
      "Ġbr": 527,
      "ure": 528,
      "Ġbir": 529,
      "ice": 530,
      "ĠTimmy": 531,
      "get": 532,
      "Ġwould": 533,
      "Ġboy": 534,
      "Ġstart": 535,
      "ong": 536,
      "ss": 537,
      "Ġbird": 538,
      "Ġsomet": 539,
      "Ġfa": 540,
      "Ã¢": 541,
      "âĤ": 542,
      "âĤ¬": 543,
      "dd": 544,
      "ings": 545,
      "Ġag": 546,
      "ade": 547,
      "Ġmake": 548,
      "Ġwor": 549,
      "Ġwhat": 550,
      ",\"": 551,
      "king": 552,
      "ĠYou": 553,
      "ĠBut": 554,
      "Ġsays": 555,
      "Ġran": 556,
      "own": 557,
      "ie": 558,
      "Ġaway": 559,
      "Ġtre": 560,
      "gether": 561,
      "ared": 562,
      "ag": 563,
      "Ġstarted": 564,
      "oud": 565,
      "if": 566,
      "Ġmade": 567,
      "Ġcar": 568,
      "Ġsomething": 569,
      "Ġtogether": 570,
      "ther": 571,
      "Ġpark": 572,
      "Ġco": 573,
      "ited": 574,
      "Ġsad": 575,
      "Ġother": 576,
      "Ġnew": 577,
      "Ġfrom": 578,
      "Ġput": 579,
      "ell": 580,
      "Ġexc": 581,
      "Ġla": 582,
      "Ġpr": 583,
      "Ġhug": 584,
      "ĠL": 585,
      "ble": 586,
      "ook": 587,
      "Ġagain": 588,
      "ach": 589,
      "Ġmu": 590,
      "Ġgood": 591,
      "Ġwhen": 592,
      "Ġhome": 593,
      "ep": 594,
      "Ġwho": 595,
      "ried": 596,
      "Ġfl": 597,
      "est": 598,
      "hat": 599,
      "Ġthen": 600,
      "Ġfound": 601,
      "Ġch": 602,
      "pped": 603,
      "Ġdec": 604,
      "as": 605,
      "Ġwal": 606,
      "Ġget": 607,
      "qu": 608,
      "Ġplaying": 609,
      "nn": 610,
      "ought": 611,
      "Ġsw": 612,
      "ĠE": 613,
      "pl": 614,
      "ally": 615,
      "ous": 616,
      "Ġthings": 617,
      "Ġliked": 618,
      "uck": 619,
      "Ġexcited": 620,
      "Ġgot": 621,
      "ro": 622,
      "Ġbl": 623,
      "ided": 624,
      "ara": 625,
      "ave": 626,
      "Ġdecided": 627,
      "Ġevery": 628,
      "Ġyour": 629,
      "ĠD": 630,
      "Ġcame": 631,
      "ĠMom": 632,
      "Ġdog": 633,
      "ax": 634,
      "Ġscared": 635,
      "Ġv": 636,
      "ust": 637,
      "Ġdown": 638,
      "Ġone": 639,
      "ouse": 640,
      "Ġfind": 641,
      "Ġcare": 642,
      "nna": 643,
      "ist": 644,
      "ny": 645,
      "ap": 646,
      "Ġthan": 647,
      "Ġbec": 648,
      "They": 649,
      "Ġfeel": 650,
      "ue": 651,
      "Ġdad": 652,
      "Ġmy": 653,
      "udd": 654,
      "Ġab": 655,
      "Ġwill": 656,
      "Ġlook": 657,
      "arn": 658,
      "our": 659,
      "Ġke": 660,
      "Ġgra": 661,
      "us": 662,
      "Ġgr": 663,
      "nder": 664,
      "ess": 665,
      "ways": 666,
      "Ġpo": 667,
      "fe": 668,
      "Ġdidn": 669,
      "Ġtook": 670,
      "Ġabout": 671,
      "Ġalways": 672,
      "ers": 673,
      "Ġtoys": 674,
      "ant": 675,
      "bb": 676,
      "Ġlot": 677,
      "Ġkne": 678,
      "ĠSam": 679,
      "ise": 680,
      "Ġball": 681,
      "Ġmommy": 682,
      "Ġtree": 683,
      "Ġthought": 684,
      "Ġoutside": 685,
      "ĠF": 686,
      "ite": 687,
      "Ġmore": 688,
      "ened": 689,
      "Ġta": 690,
      "ched": 691,
      "Ġlearn": 692,
      "eci": 693,
      "Ġho": 694,
      "ret": 695,
      "Ġold": 696,
      "Ġint": 697,
      "ged": 698,
      "Ġknow": 699,
      "Ġsor": 700,
      "Ġcat": 701,
      "Ġlaug": 702,
      "Ġtake": 703,
      "ive": 704,
      "ecial": 705,
      "Ġspecial": 706,
      "ia": 707,
      "Ġknew": 708,
      "ĠMax": 709,
      "udden": 710,
      "Ġany": 711,
      "Ġpe": 712,
      "fter": 713,
      "Ġhow": 714,
      "uddenly": 715,
      "Ġsorry": 716,
      "ink": 717,
      "ma": 718,
      "Ġshow": 719,
      "But": 720,
      "Ġtr": 721,
      "Ġrun": 722,
      "ish": 723,
      "Ġtw": 724,
      "Ġsl": 725,
      "Ġmuch": 726,
      "and": 727,
      "au": 728,
      "Ġhand": 729,
      "Ġhouse": 730,
      "Ġor": 731,
      "Ġop": 732,
      "ven": 733,
      "Ġsk": 734,
      "Ġmo": 735,
      "Ġclo": 736,
      "Ġsun": 737,
      "Ġtried": 738,
      "Ġinto": 739,
      "Tom": 740,
      "Ġwater": 741,
      "Ġinside": 742,
      "ump": 743,
      "Ġtold": 744,
      "ank": 745,
      "ate": 746,
      "ĠSara": 747,
      "Ġthis": 748,
      "Ġen": 749,
      "Ġgave": 750,
      "Ġproud": 751,
      "Ġqu": 752,
      "Ġheard": 753,
      "Ġif": 754,
      "Ġnever": 755,
      "Ġeach": 756,
      "Ġover": 757,
      "Ġcouldn": 758,
      "ace": 759,
      "ĠWe": 760,
      "ty": 761,
      "ĠAnna": 762,
      "Ġroom": 763,
      "by": 764,
      "dy": 765,
      "Ġeat": 766,
      "ĠEvery": 767,
      "other": 768,
      "Ġpret": 769,
      "ion": 770,
      "Ġpick": 771,
      "Ġexpl": 772,
      "ause": 773,
      "Ġplayed": 774,
      "Mom": 775,
      "ak": 776,
      "ge": 777,
      "etter": 778,
      "Ġgre": 779,
      "Ġhugged": 780,
      "Ġjust": 781,
      "here": 782,
      "Ġcom": 783,
      "Ġbox": 784,
      "Ġoff": 785,
      "Ġwat": 786,
      "oth": 787,
      "Ġnice": 788,
      "Ġneed": 789,
      "Ġmany": 790,
      "'m": 791,
      "Ġstr": 792,
      "Ġbecause": 793,
      "ile": 794,
      "Ġsmall": 795,
      "gry": 796,
      "Ġfo": 797,
      "iz": 798,
      "Ġbu": 799,
      "Ġjo": 800,
      "ving": 801,
      "Ġlong": 802,
      "uc": 803,
      "imal": 804,
      "Ġanimal": 805,
      "Ġbear": 806,
      "ine": 807,
      "Ġsn": 808,
      "Ġtry": 809,
      "ort": 810,
      "ough": 811,
      "Ġunt": 812,
      "urt": 813,
      "ild": 814,
      "sel": 815,
      "Ġlearned": 816,
      "sed": 817,
      "Ġuntil": 818,
      "ĠJack": 819,
      "Ġlove": 820,
      "Ġkind": 821,
      "Ġbetter": 822,
      "ft": 823,
      "Ġflow": 824,
      "Ġim": 825,
      "ĠMia": 826,
      "Ġcall": 827,
      "Ġdon": 828,
      "He": 829,
      "Ġbest": 830,
      "ars": 831,
      "urn": 832,
      "ull": 833,
      "em": 834,
      "Ġend": 835,
      "ady": 836,
      "urp": 837,
      "Ġcle": 838,
      "Ġad": 839,
      "Yes": 840,
      "vent": 841,
      "aut": 842,
      "ves": 843,
      "ĠAnd": 844,
      "ream": 845,
      "ĠJo": 846,
      "Ġcareful": 847,
      "ĠC": 848,
      "Ġfast": 849,
      "arden": 850,
      "Ġgarden": 851,
      "Ġbeaut": 852,
      "ber": 853,
      "Th": 854,
      "Ġfi": 855,
      "Ġche": 856,
      "Ġthanked": 857,
      "Ġbra": 858,
      "pt": 859,
      "Ġsky": 860,
      "Åĵ": 861,
      "Ġeven": 862,
      "ies": 863,
      "Ġjump": 864,
      "ĠSo": 865,
      "lly": 866,
      "Ġlaughed": 867,
      "ase": 868,
      "Ġloud": 869,
      "It": 870,
      "Ġby": 871,
      "Ġte": 872,
      "self": 873,
      "ĠHer": 874,
      "Ġgl": 875,
      "Ġlist": 876,
      "iny": 877,
      "wn": 878,
      "lew": 879,
      "Ġcome": 880,
      "Ġbeauti": 881,
      "Ġhard": 882,
      "Ġbeautiful": 883,
      "Ġway": 884,
      "Ġhurt": 885,
      "Ġanimals": 886,
      "Ġlots": 887,
      "Ġwo": 888,
      "Ġstill": 889,
      "Ġfam": 890,
      "Ġra": 891,
      "Ġunder": 892,
      "ĠThen": 893,
      "Ġstay": 894,
      "Ġlet": 895,
      "ct": 896,
      "ĠÃ¢": 897,
      "ect": 898,
      "ning": 899,
      "be": 900,
      "hes": 901,
      "Ġcu": 902,
      "Ġboth": 903,
      "Ġsafe": 904,
      "ĠFrom": 905,
      "ool": 906,
      "Ġbad": 907,
      "ĠHis": 908,
      "Ġcol": 909,
      "ople": 910,
      "ock": 911,
      "Ġrem": 912,
      "Ġtwo": 913,
      "ree": 914,
      "kay": 915,
      "Ġbook": 916,
      "Ġimp": 917,
      "Ġlived": 918,
      "ast": 919,
      "Ġits": 920,
      "Ġangry": 921,
      "Tim": 922,
      "ane": 923,
      "Ġshould": 924,
      "No": 925,
      "ucy": 926,
      "ress": 927,
      "Ġbrave": 928,
      "urpr": 929,
      "ished": 930,
      "Ġwalked": 931,
      "Ġpeople": 932,
      "Ġred": 933,
      "Ġflew": 934,
      "igh": 935,
      "ob": 936,
      "Ġsurpr": 937,
      "Ġfamily": 938,
      "When": 939,
      "Ġcalled": 940,
      "ip": 941,
      "Ġsoon": 942,
      "Ġstor": 943,
      "Ġfin": 944,
      "Let": 945,
      "Ġshare": 946,
      "fore": 947,
      "Ġkept": 948,
      "Ġdan": 949,
      "led": 950,
      "Ġfly": 951,
      "xt": 952,
      "Ġfore": 953,
      "dded": 954,
      "Ġpic": 955,
      "ised": 956,
      "hn": 957,
      "Ġdoor": 958,
      "ĠP": 959,
      "Ġclean": 960,
      "Ġgoing": 961,
      "Ġrock": 962,
      "Ġpretty": 963,
      "Ben": 964,
      "ĠWhen": 965,
      "âĤ¬â": 966,
      "Ġnow": 967,
      "Ġkeep": 968,
      "Ġnoise": 969,
      "Ġdra": 970,
      "Ġshiny": 971,
      "Ġdoll": 972,
      "Ġopened": 973,
      "ummy": 974,
      "Ġwind": 975,
      "ary": 976,
      "Ġcry": 977,
      "Ġadvent": 978,
      "age": 979,
      "Ġbefore": 980,
      "Ġreal": 981,
      "Ġide": 982,
      "Ġsto": 983,
      "Ġcon": 984,
      "so": 985,
      "Ġturn": 986,
      "illy": 987,
      "Ġexplore": 988,
      "Ġground": 989,
      "les": 990,
      "ied": 991,
      "Ġalso": 992,
      "What": 993,
      "Ġfr": 994,
      "Ġey": 995,
      "Ġfar": 996,
      "Ġidea": 997,
      "Ġcolor": 998,
      "Ġnodded": 999,
      "That": 1000,
      "oon": 1001,
      "Ħ¢": 1002,
      "âĤ¬âĦ¢": 1003,
      "Ġhas": 1004,
      "Ġwar": 1005,
      "oy": 1006,
      "th": 1007,
      "imb": 1008,
      "Ġun": 1009,
      "Ġfeeling": 1010,
      "Ġnext": 1011,
      "Ġpicked": 1012,
      "ture": 1013,
      "uch": 1014,
      "kes": 1015,
      "thing": 1016,
      "Ġclimb": 1017,
      "ĠLucy": 1018,
      "Ġma": 1019,
      "Ġwalking": 1020,
      "ĠDad": 1021,
      "Ġsmile": 1022,
      "aybe": 1023,
      "Ġwhile": 1024,
      "Ġthr": 1025,
      "Ġbed": 1026,
      "eet": 1027,
      "ger": 1028,
      "Ġadventure": 1029,
      "Thank": 1030,
      "Ġbeing": 1031,
      "Ġgive": 1032,
      "Ġtruck": 1033,
      "ĠG": 1034,
      "iced": 1035,
      "Ġclos": 1036,
      "Ġpicture": 1037,
      "Ġthink": 1038,
      "ious": 1039,
      "Ġdif": 1040,
      "ted": 1041,
      "Ġfood": 1042,
      "Ġwr": 1043,
      "joy": 1044,
      "Ġtow": 1045,
      "Ġlisten": 1046,
      "ff": 1047,
      "ac": 1048,
      "Ġeyes": 1049,
      "ught": 1050,
      "Ġbre": 1051,
      "Ġdel": 1052,
      "Ġstopped": 1053,
      "Ġbro": 1054,
      "Ġtra": 1055,
      "Ġlooking": 1056,
      "Ġafter": 1057,
      "ting": 1058,
      "ĠSp": 1059,
      "Ġwait": 1060,
      "Ġown": 1061,
      "Ġvo": 1062,
      "Ġshout": 1063,
      "Ġwalk": 1064,
      "Ġrepl": 1065,
      "ember": 1066,
      "Ġhead": 1067,
      "Ġflowers": 1068,
      "Ġgreat": 1069,
      "Ġblue": 1070,
      "Ġwonder": 1071,
      "Ġhands": 1072,
      "ĠSuddenly": 1073,
      "Ġenjoy": 1074,
      "Ġever": 1075,
      "She": 1076,
      "Suddenly": 1077,
      "irst": 1078,
      "ized": 1079,
      "Ġnear": 1080,
      "Ġimport": 1081,
      "Ġnoticed": 1082,
      "Ġdis": 1083,
      "bbit": 1084,
      "Ġslide": 1085,
      "Ġfish": 1086,
      "Ġquick": 1087,
      "Ġapp": 1088,
      "Ġforest": 1089,
      "able": 1090,
      "Ġus": 1091,
      "llow": 1092,
      "Ġremember": 1093,
      "Ġde": 1094,
      "Ġmean": 1095,
      "Ġsound": 1096,
      "lease": 1097,
      "maz": 1098,
      "Ġwatch": 1099,
      "Ġrain": 1100,
      "Ġamaz": 1101,
      "Ġimportant": 1102,
      "Ġask": 1103,
      "Ġokay": 1104,
      "Ġwork": 1105,
      "bbed": 1106,
      "Ġshowed": 1107,
      "Ġtal": 1108,
      "bye": 1109,
      "gan": 1110,
      "fere": 1111,
      "We": 1112,
      "Ġreplied": 1113,
      "Ġstick": 1114,
      "Ġrabbit": 1115,
      "Ġdiffere": 1116,
      "Ġac": 1117,
      "Ġbright": 1118,
      "Ġright": 1119,
      "day": 1120,
      "Ġfollow": 1121,
      "Ġeveryone": 1122,
      "Ġboat": 1123,
      "Ġstrong": 1124,
      "Anna": 1125,
      "Ġuse": 1126,
      "Ġsqu": 1127,
      "Ġwatched": 1128,
      "Ġour": 1129,
      "Ġwhere": 1130,
      "ĠSpot": 1131,
      "Ġye": 1132,
      "ath": 1133,
      "ered": 1134,
      "Ġquickly": 1135,
      "Ġmor": 1136,
      "Ġyell": 1137,
      "Ġbeen": 1138,
      "Ġvoice": 1139,
      "So": 1140,
      "Ġdoes": 1141,
      "ĠBob": 1142,
      "Ġchild": 1143,
      "ng": 1144,
      "Ġdifferent": 1145,
      "Ġcuri": 1146,
      "Ġface": 1147,
      "Ġhop": 1148,
      "Look": 1149,
      "ĠMommy": 1150,
      "ange": 1151,
      "ĠN": 1152,
      "Ġsure": 1153,
      "ĠSue": 1154,
      "Ġam": 1155,
      "Ġbecame": 1156,
      "aught": 1157,
      "Sara": 1158,
      "Ġdress": 1159,
      "Ġgoodbye": 1160,
      "Ġplace": 1161,
      "Ġcloser": 1162,
      "Ġstore": 1163,
      "ila": 1164,
      "Ġmag": 1165,
      "Ġhigh": 1166,
      "Ġwarm": 1167,
      "ĠR": 1168,
      "Ġforg": 1169,
      "Ġcurious": 1170,
      "Ġtell": 1171,
      "ndma": 1172,
      "Ġcook": 1173,
      "unny": 1174,
      "Ġcake": 1175,
      "Ġblock": 1176,
      "Ġbel": 1177,
      "more": 1178,
      "co": 1179,
      "leep": 1180,
      "Ġanymore": 1181,
      "ass": 1182,
      "Ġopen": 1183,
      "Ġnight": 1184,
      "Jo": 1185,
      "ount": 1186,
      "Ġfav": 1187,
      "Ġhere": 1188,
      "Ġpull": 1189,
      "itc": 1190,
      "Ġfirst": 1191,
      "Ġthree": 1192,
      "Ġz": 1193,
      "ached": 1194,
      "ĠTh": 1195,
      "ired": 1196,
      "Ġpain": 1197,
      "iss": 1198,
      "Ġpu": 1199,
      "Ġbus": 1200,
      "imes": 1201,
      "Her": 1202,
      "Ġgrabbed": 1203,
      "Ġlea": 1204,
      "orn": 1205,
      "Ġru": 1206,
      "Can": 1207,
      "Ġsweet": 1208,
      "Ġfell": 1209,
      "Ġkid": 1210,
      "Ġonly": 1211,
      "Ġbutter": 1212,
      "Ġbirds": 1213,
      "isy": 1214,
      "Ġmon": 1215,
      "Ġsees": 1216,
      "itchen": 1217,
      "Ġkitchen": 1218,
      "Ġjumped": 1219,
      "Ġfire": 1220,
      "Ġcont": 1221,
      "Ġbit": 1222,
      "Ġsand": 1223,
      "Ġba": 1224,
      "Ġflo": 1225,
      "Ġstop": 1226,
      "Ġhelped": 1227,
      "Ġglad": 1228,
      "Ġhappened": 1229,
      "Ġgrass": 1230,
      "Ġper": 1231,
      "Ġsing": 1232,
      "Ġshouted": 1233,
      "Ġcra": 1234,
      "Ġdr": 1235,
      "Ġtri": 1236,
      "ĠSarah": 1237,
      "ĠDo": 1238,
      "nts": 1239,
      "Ġcr": 1240,
      "ĠLet": 1241,
      "Ġbeh": 1242,
      "Ġbrother": 1243,
      "Ġreached": 1244,
      "Ġstory": 1245,
      "ppy": 1246,
      "After": 1247,
      "air": 1248,
      "Ġrealized": 1249,
      "ins": 1250,
      "Ġbunny": 1251,
      "Ġlady": 1252,
      "ĠJane": 1253,
      "Ġyummy": 1254,
      "ĠAs": 1255,
      "Ġmess": 1256,
      "Ġhaving": 1257,
      "Ġsoft": 1258,
      "Ġunderst": 1259,
      "Ġgame": 1260,
      "Ġless": 1261,
      "akes": 1262,
      "Ġate": 1263,
      "Ġcre": 1264,
      "'re": 1265,
      "Ġpretend": 1266,
      "ĠEveryone": 1267,
      "Ġdraw": 1268,
      "Ġprin": 1269,
      "Ġhat": 1270,
      "Ġmum": 1271,
      "Ġpare": 1272,
      "Ġrest": 1273,
      "Ġfavor": 1274,
      "Ġthrough": 1275,
      "Ġready": 1276,
      "Ġpap": 1277,
      "zy": 1278,
      "Ġfavorite": 1279,
      "Ġthing": 1280,
      "where": 1281,
      "ken": 1282,
      "Ġlooks": 1283,
      "ĠThat": 1284,
      "Ġreally": 1285,
      "ĠCan": 1286,
      "Ġmagic": 1287,
      "Ġduck": 1288,
      "Ġmaking": 1289,
      "Ġcut": 1290,
      "ater": 1291,
      "Ġworld": 1292,
      "Ġhimself": 1293,
      "ather": 1294,
      "Ġbegan": 1295,
      "Ġdone": 1296,
      "fully": 1297,
      "Ġcoming": 1298,
      "Mommy": 1299,
      "ĠJoe": 1300,
      "Ġkids": 1301,
      "Ġcars": 1302,
      "Ġpond": 1303,
      "Ġprom": 1304,
      "Ġwaved": 1305,
      "Ġtired": 1306,
      "Ġtouch": 1307,
      "Ġwhy": 1308,
      "Ġfro": 1309,
      "bo": 1310,
      "ster": 1311,
      "Ġbutterf": 1312,
      "Wow": 1313,
      "Ġfix": 1314,
      "Ġste": 1315,
      "Ġflower": 1316,
      "Ġpart": 1317,
      "Ġworry": 1318,
      "Ġfill": 1319,
      "Ġname": 1320,
      "Ġfunny": 1321,
      "Ġcatch": 1322,
      "Ġcried": 1323,
      "Ġmouse": 1324,
      "sh": 1325,
      "Ġused": 1326,
      "Ġdelic": 1327,
      "Ġpus": 1328,
      "Ġseen": 1329,
      "Ġblocks": 1330,
      "Ġhair": 1331,
      "Ġparents": 1332,
      "ign": 1333,
      "ient": 1334,
      "Ġanother": 1335,
      "rel": 1336,
      "uff": 1337,
      "Ġhold": 1338,
      "oney": 1339,
      "eddy": 1340,
      "Ġcool": 1341,
      "aisy": 1342,
      "Ġgreen": 1343,
      "olly": 1344,
      "Ġtop": 1345,
      "Ġtast": 1346,
      "Ġlight": 1347,
      "Ġhopped": 1348,
      "iver": 1349,
      "mer": 1350,
      "hy": 1351,
      "Ġdoing": 1352,
      "Ġlesson": 1353,
      "Ġthank": 1354,
      "Ġsurprise": 1355,
      "ĠJohn": 1356,
      "Ġlikes": 1357,
      "ation": 1358,
      "\".": 1359,
      "ards": 1360,
      "Ġswim": 1361,
      "Ġgi": 1362,
      "Ġpaper": 1363,
      "Ġfloor": 1364,
      "Ġwished": 1365,
      "As": 1366,
      "Ġdri": 1367,
      "Ġwindow": 1368,
      "Don": 1369,
      "Sam": 1370,
      "Ġsmell": 1371,
      "Timmy": 1372,
      "Ġbag": 1373,
      "Ġbehind": 1374,
      "Ġdark": 1375,
      "Ġwood": 1376,
      "Ġfull": 1377,
      "Ġtrees": 1378,
      "Ġdro": 1379,
      "Ġrunning": 1380,
      "Ġread": 1381,
      "ike": 1382,
      "Ġworked": 1383,
      "Ġspot": 1384,
      "Ġ-": 1385,
      "Ġdin": 1386,
      "Ġbow": 1387,
      "andy": 1388,
      "Ġyellow": 1389,
      "ren": 1390,
      "ul": 1391,
      "Ġsho": 1392,
      "Ġyears": 1393,
      "ued": 1394,
      "Ġsleep": 1395,
      "Ġsat": 1396,
      "Ġhole": 1397,
      "aring": 1398,
      "Ġlaugh": 1399,
      "Ġhappily": 1400,
      "ely": 1401,
      "Ġfrog": 1402,
      "Ġsurprised": 1403,
      "ĠIn": 1404,
      "Ġset": 1405,
      "Ġswing": 1406,
      "John": 1407,
      "rew": 1408,
      "Ġslow": 1409,
      "Ġremembered": 1410,
      "Ġcarefully": 1411,
      "Ġheld": 1412,
      "Ġlost": 1413,
      "Ġcold": 1414,
      "Hell": 1415,
      "Hello": 1416,
      "Ġbutterfly": 1417,
      "Ġbuy": 1418,
      "Ġice": 1419,
      "uit": 1420,
      "ons": 1421,
      "Ġneeded": 1422,
      "Ġmove": 1423,
      "Ġleft": 1424,
      "Ġhear": 1425,
      "Ġanything": 1426,
      "Ġperf": 1427,
      "Ġenjoyed": 1428,
      "Ġwrong": 1429,
      "Ġfollowed": 1430,
      "Ġfair": 1431,
      "reed": 1432,
      "Ġtall": 1433,
      "Ġdream": 1434,
      "Ġhun": 1435,
      "Ġel": 1436,
      "Ġarri": 1437,
      "Ġchildren": 1438,
      "cess": 1439,
      "Ġtable": 1440,
      "inally": 1441,
      "Ġair": 1442,
      "Ġbooks": 1443,
      "ens": 1444,
      "Ġfriendly": 1445,
      "Ġdir": 1446,
      "Ġunderstand": 1447,
      "Ġhill": 1448,
      "Ġfinished": 1449,
      "ross": 1450,
      "Ġplease": 1451,
      "Ġsnow": 1452,
      "Ġhot": 1453,
      "Ġherself": 1454,
      "Ġdelicious": 1455,
      "Ġclose": 1456,
      "ined": 1457,
      "Ġhid": 1458,
      "Ġcontin": 1459,
      "ds": 1460,
      "Ġmight": 1461,
      "ĠAfter": 1462,
      "Ġarm": 1463,
      "sp": 1464,
      "Ġelse": 1465,
      "Ġbug": 1466,
      "Ġforgot": 1467,
      "Ġarrived": 1468,
      "Ġcast": 1469,
      "Ġcolors": 1470,
      "lf": 1471,
      "ield": 1472,
      "ĠLila": 1473,
      "Ġbroken": 1474,
      "Ġgent": 1475,
      "Ġrel": 1476,
      "Ġbaby": 1477,
      "Ġtight": 1478,
      "Ġwonderful": 1479,
      "ĠDaisy": 1480,
      "Ġbuild": 1481,
      "Ġmat": 1482,
      "Ġable": 1483,
      "Ġsong": 1484,
      "Then": 1485,
      "Ġgone": 1486,
      "av": 1487,
      "asure": 1488,
      "Ġwants": 1489,
      "ĠNow": 1490,
      "Ġfilled": 1491,
      "Ġsquir": 1492,
      "ĠBenny": 1493,
      "ner": 1494,
      "Ġwall": 1495,
      "ĠSally": 1496,
      "Ġcreat": 1497,
      "Ġpat": 1498,
      "OK": 1499,
      "room": 1500,
      "Ġsomeone": 1501,
      "Ġagreed": 1502,
      "Ġyes": 1503,
      "ich": 1504,
      "Ġleaves": 1505,
      "Ġcount": 1506,
      "Ġpink": 1507,
      "Ġsquirrel": 1508,
      "Ġcontinued": 1509,
      "ask": 1510,
      "Jack": 1511,
      "ĠThere": 1512,
      "ama": 1513,
      "ee": 1514,
      "'ll": 1515,
      "ey": 1516,
      "ĠEm": 1517,
      "Ġvis": 1518,
      "Ġlion": 1519,
      "Ġenough": 1520,
      "Ġbreak": 1521,
      "From": 1522,
      "ĠTommy": 1523,
      "Ġstayed": 1524,
      "Ġgetting": 1525,
      "Ġpoin": 1526,
      "Ġmorning": 1527,
      "Ġmoment": 1528,
      "ĠMaybe": 1529,
      "Ġfinally": 1530,
      "app": 1531,
      "ash": 1532,
      "Ġfall": 1533,
      "Ġgrandma": 1534,
      "Ġcookies": 1535,
      "ries": 1536,
      "Ġju": 1537,
      "Ġhungry": 1538,
      "Ġscary": 1539,
      "ance": 1540,
      "gon": 1541,
      "Ġturned": 1542,
      "Ġfight": 1543,
      "Ġsometimes": 1544,
      "Ġpi": 1545,
      "row": 1546,
      "Ġmakes": 1547,
      "Ġbeach": 1548,
      "Ġwet": 1549,
      "ĠThis": 1550,
      "Ġtrying": 1551,
      "ced": 1552,
      "ĠK": 1553,
      "icy": 1554,
      "Ġamazing": 1555,
      "Ġsmiles": 1556,
      "Ġfew": 1557,
      "ĠWhat": 1558,
      "red": 1559,
      "Ġothers": 1560,
      "Ġclimbed": 1561,
      "Ġmother": 1562,
      "Ġdinner": 1563,
      "oom": 1564,
      "apped": 1565,
      "Ġcomp": 1566,
      "Ġlistened": 1567,
      "Ġtalk": 1568,
      "This": 1569,
      "key": 1570,
      "Ġpictures": 1571,
      "Ġcastle": 1572,
      "Ġcream": 1573,
      "Ġmet": 1574,
      "At": 1575,
      "Ġperfect": 1576,
      "rot": 1577,
      "Ġmus": 1578,
      "Ġclot": 1579,
      "Ġwhite": 1580,
      "Ġfur": 1581,
      "Ġdaddy": 1582,
      "oring": 1583,
      "His": 1584,
      "Ġclothes": 1585,
      "lc": 1586,
      "Ġtail": 1587,
      "amp": 1588,
      "oup": 1589,
      "Ġballoon": 1590,
      "Ġpuppy": 1591,
      "Ġmar": 1592,
      "ctor": 1593,
      "Ġpet": 1594,
      "ĠGra": 1595,
      "Ġjoy": 1596,
      "Ġalone": 1597,
      "Ġpol": 1598,
      "Ġasks": 1599,
      "ence": 1600,
      "Oh": 1601,
      "man": 1602,
      "ĠBilly": 1603,
      "Ġsail": 1604,
      "Ġwasn": 1605,
      "Ġbrought": 1606,
      "Ġspl": 1607,
      "Ġspark": 1608,
      "Ġwoods": 1609,
      "Ġeverything": 1610,
      "ated": 1611,
      "Ġdeep": 1612,
      "Ġstrange": 1613,
      "der": 1614,
      "ister": 1615,
      "ĠTo": 1616,
      "Ġpulled": 1617,
      "Ġsit": 1618,
      "Ġride": 1619,
      "Ġdanger": 1620,
      "Ġsear": 1621,
      "uffy": 1622,
      "Ġplan": 1623,
      "Ġgrow": 1624,
      "Ġroll": 1625,
      "ling": 1626,
      "ott": 1627,
      "Ġwon": 1628,
      "eter": 1629,
      "Ġwaited": 1630,
      "ĠJen": 1631,
      "Ġhide": 1632,
      "Ġvisit": 1633,
      "ucky": 1634,
      "Ġpie": 1635,
      "Ġfox": 1636,
      "Ġamazed": 1637,
      "ower": 1638,
      "med": 1639,
      "Ġleave": 1640,
      "me": 1641,
      "Ġtreat": 1642,
      "zz": 1643,
      "os": 1644,
      "ang": 1645,
      "Ġmusic": 1646,
      "Ġteddy": 1647,
      "ever": 1648,
      "ĠAmy": 1649,
      "Ġtowards": 1650,
      "Ġruns": 1651,
      "Ġsilly": 1652,
      "ape": 1653,
      "Ġthinks": 1654,
      "Ġland": 1655,
      "Ġliving": 1656,
      "Ġcloud": 1657,
      "Max": 1658,
      "Ġflying": 1659,
      "Maybe": 1660,
      "Ġpen": 1661,
      "Ġpre": 1662,
      "Ġfield": 1663,
      "Ġshared": 1664,
      "ames": 1665,
      "igg": 1666,
      "ained": 1667,
      "ises": 1668,
      "Ġpromised": 1669,
      "Okay": 1670,
      "ugg": 1671,
      "ope": 1672,
      "Ġqui": 1673,
      "Ġowner": 1674,
      "gs": 1675,
      "ol": 1676,
      "Ġgu": 1677,
      "Ġjob": 1678,
      "Ġpaint": 1679,
      "Ġrace": 1680,
      "thy": 1681,
      "Ġbelie": 1682,
      "cket": 1683,
      "Ġpa": 1684,
      "Ġside": 1685,
      "Ġmoney": 1686,
      "Ġmoral": 1687,
      "Ġlake": 1688,
      "Ġparty": 1689,
      "Ġsec": 1690,
      "ually": 1691,
      "orm": 1692,
      "Ġquiet": 1693,
      "cle": 1694,
      "Ġsister": 1695,
      "Ġwear": 1696,
      "avy": 1697,
      "eces": 1698,
      "Ġmust": 1699,
      "Ġpieces": 1700,
      "Ġworried": 1701,
      "ĠJim": 1702,
      "Ġfaster": 1703,
      "Ġbran": 1704,
      "Ġcup": 1705,
      "Ġslowly": 1706,
      "sw": 1707,
      "up": 1708,
      "unch": 1709,
      "Ġcolorful": 1710,
      "ix": 1711,
      "Ġansw": 1712,
      "ased": 1713,
      "Ġow": 1714,
      "Ġbroke": 1715,
      "Ġgif": 1716,
      "Ġgrate": 1717,
      "Ġwelc": 1718,
      "Ġbike": 1719,
      "Ġdance": 1720,
      "Ġbott": 1721,
      "Ġcandy": 1722,
      "ze": 1723,
      "Ġbigger": 1724,
      "Ġreach": 1725,
      "Ġblank": 1726,
      "Ġgrateful": 1727,
      "ph": 1728,
      "Ġele": 1729,
      "Ġsuch": 1730,
      "Ġplant": 1731,
      "fort": 1732,
      "Ġsmart": 1733,
      "ĠAll": 1734,
      "Ġpro": 1735,
      "less": 1736,
      "Ġpot": 1737,
      "Ġcho": 1738,
      "Ġtrain": 1739,
      "Ġtreasure": 1740,
      "Ġblanket": 1741,
      "Ġsnack": 1742,
      "ire": 1743,
      "Ġscream": 1744,
      "Ġdangerous": 1745,
      "Ġmagical": 1746,
      "Ġmonster": 1747,
      "Ġblack": 1748,
      "Ġwin": 1749,
      "Ġbar": 1750,
      "Ġriver": 1751,
      "outh": 1752,
      "Ġdragon": 1753,
      "Ġve": 1754,
      "Ġnap": 1755,
      "Ġtower": 1756,
      "Ġjoin": 1757,
      "Ġmouth": 1758,
      "Sure": 1759,
      "Ġprincess": 1760,
      "ear": 1761,
      "cked": 1762,
      "Ġeverywhere": 1763,
      "Ġem": 1764,
      "Ġdolls": 1765,
      "Ġhelping": 1766,
      "Ġje": 1767,
      "Ġmost": 1768,
      "ipped": 1769,
      "Ġmonkey": 1770,
      "Ġacross": 1771,
      "Ġdisapp": 1772,
      "Ġtwins": 1773,
      "ming": 1774,
      "Ġthrew": 1775,
      "Ġfarmer": 1776,
      "Ġsign": 1777,
      "set": 1778,
      "Ġdoctor": 1779,
      "de": 1780,
      "Ġstepped": 1781,
      "Ġsame": 1782,
      "Ġdirty": 1783,
      "ored": 1784,
      "Ġheavy": 1785,
      "Ġbee": 1786,
      "Why": 1787,
      "Ġcrying": 1788,
      "Ġfruit": 1789,
      "Ġbite": 1790,
      "eared": 1791,
      "Hi": 1792,
      "ĠDaddy": 1793,
      "Ġcarrot": 1794,
      "Ġwords": 1795,
      "Ġbowl": 1796,
      "Mia": 1797,
      "Ġhoped": 1798,
      "Ġheal": 1799,
      "Ġstre": 1800,
      "bble": 1801,
      "Ġheart": 1802,
      "Ġclosed": 1803,
      "ere": 1804,
      "Ġpass": 1805,
      "Ġspr": 1806,
      "ĠFl": 1807,
      "Ġhig": 1808,
      "Ġbelieve": 1809,
      "Ġwouldn": 1810,
      "Ġbath": 1811,
      "ĠMr": 1812,
      "ident": 1813,
      "Ġstuck": 1814,
      "Ġteac": 1815,
      "Ġacc": 1816,
      "Ġtown": 1817,
      "asket": 1818,
      "Ġbasket": 1819,
      "ĠJill": 1820,
      "Ġcour": 1821,
      "chool": 1822,
      "Ġfeels": 1823,
      "Ġbutt": 1824,
      "ĠMolly": 1825,
      "Ġbuck": 1826,
      "Ġcray": 1827,
      "Ġatt": 1828,
      "Ġmix": 1829,
      "Ġbrown": 1830,
      "Ġcoll": 1831,
      "iting": 1832,
      "Ġsuddenly": 1833,
      "Ġfairy": 1834,
      "Ġschool": 1835,
      "Ġchair": 1836,
      "Ġeating": 1837,
      "Ġcourse": 1838,
      "Ġpushed": 1839,
      "Ġgentle": 1840,
      "Ġclapped": 1841,
      "ord": 1842,
      "ventually": 1843,
      "Ġmin": 1844,
      "Ġpack": 1845,
      "Ġhit": 1846,
      "pping": 1847,
      "Ġpers": 1848,
      "Ġneigh": 1849,
      "issed": 1850,
      "ts": 1851,
      "Ġwithout": 1852,
      "Ġstand": 1853,
      "Ġneighb": 1854,
      "Ġpocket": 1855,
      "ors": 1856,
      "Ġhigher": 1857,
      "Ġwelcome": 1858,
      "Ġteacher": 1859,
      "Ġdrove": 1860,
      "Ġswings": 1861,
      "orrow": 1862,
      "Ġyard": 1863,
      "Ġsmo": 1864,
      "ier": 1865,
      "Ġtoday": 1866,
      "Ġnoises": 1867,
      "Ġforget": 1868,
      "Ġcheered": 1869,
      "ourn": 1870,
      "Ġgames": 1871,
      "ho": 1872,
      "Ġben": 1873,
      "Ġwings": 1874,
      "Ġjourn": 1875,
      "br": 1876,
      "Ġneck": 1877,
      "Ġturns": 1878,
      "Ġpiece": 1879,
      "umb": 1880,
      "ract": 1881,
      "Lila": 1882,
      "Ġlonger": 1883,
      "Ġdry": 1884,
      "Ġfree": 1885,
      "Ġsang": 1886,
      "vel": 1887,
      "Finally": 1888,
      "ead": 1889,
      "Ġhugs": 1890,
      "Ġexplained": 1891,
      "ible": 1892,
      "oun": 1893,
      "Ġinst": 1894,
      "Ġcorn": 1895,
      "phant": 1896,
      "cy": 1897,
      "Ġhappen": 1898,
      "Ġaccident": 1899,
      "Ġalong": 1900,
      "Ġthrow": 1901,
      "Ġlate": 1902,
      "Ġshoes": 1903,
      "Ġmiss": 1904,
      "Ġwell": 1905,
      "ches": 1906,
      "Ġyoung": 1907,
      "Ġlon": 1908,
      "Ġtrou": 1909,
      "ment": 1910,
      "itting": 1911,
      "Ġsea": 1912,
      "Ġsecret": 1913,
      "Ġstories": 1914,
      "ĠMary": 1915,
      "Ġshap": 1916,
      "Ġelephant": 1917,
      "Ġwish": 1918,
      "Ġpurp": 1919,
      "Ġsinging": 1920,
      "Ġlonely": 1921,
      "Ġadventures": 1922,
      "Ġshook": 1923,
      "Ġfence": 1924,
      "Ġmoved": 1925,
      "Ġstars": 1926,
      "ek": 1927,
      "Ġlunch": 1928,
      "Ġdist": 1929,
      "Ġupset": 1930,
      "Ġapple": 1931,
      "Ġstar": 1932,
      "Ġbelong": 1933,
      "bby": 1934,
      "Ġph": 1935,
      "aughty": 1936,
      "Ġmine": 1937,
      "Ġnaughty": 1938,
      "Ġkey": 1939,
      "Ġplac": 1940,
      "Ġrocks": 1941,
      "Ġtom": 1942,
      "Ġnearby": 1943,
      "Ġcaught": 1944,
      "Do": 1945,
      "fused": 1946,
      "Ġstreet": 1947,
      "Ġwhe": 1948,
      "ĠGrandma": 1949,
      "Ġshop": 1950,
      "ountain": 1951,
      "Ġexploring": 1952,
      "Ġdropped": 1953,
      "Ġpurple": 1954,
      "yard": 1955,
      "ocked": 1956,
      "Ġexp": 1957,
      "Ġwise": 1958,
      "Ġjar": 1959,
      "Ġbring": 1960,
      "Ġbackyard": 1961,
      "bow": 1962,
      "Ġtaking": 1963,
      "llo": 1964,
      "Ġorange": 1965,
      "ail": 1966,
      "Ġswam": 1967,
      "Ġsoup": 1968,
      "ub": 1969,
      "Ġshapes": 1970,
      "ces": 1971,
      "ward": 1972,
      "Ġseemed": 1973,
      "aughter": 1974,
      "Ġinv": 1975,
      "Ġowl": 1976,
      "Ġfarm": 1977,
      "Ġdrink": 1978,
      "Ġes": 1979,
      "Ġresp": 1980,
      "Ġbucket": 1981,
      "Ġpast": 1982,
      "Ġyear": 1983,
      "Ġca": 1984,
      "Ġrelie": 1985,
      "Ġmail": 1986,
      "ush": 1987,
      "ions": 1988,
      "ĠEmma": 1989,
      "Ġstu": 1990,
      "Ġbench": 1991,
      "ĠThank": 1992,
      "Ġaf": 1993,
      "Ġbat": 1994,
      "Ġbusy": 1995,
      "adow": 1996,
      "ung": 1997,
      "Ġdes": 1998,
      "Ġtakes": 1999,
      "Ġmad": 2000,
      "Ġnothing": 2001,
      "Ġthough": 2002,
      "Ġ3": 2003,
      "Ġnose": 2004,
      "Ġjuice": 2005,
      "And": 2006,
      "Ġsounds": 2007,
      "Ġwoke": 2008,
      "sy": 2009,
      "ity": 2010,
      "Ġarms": 2011,
      "Ġcomes": 2012,
      "Ġtiny": 2013,
      "ese": 2014,
      "fish": 2015,
      "Ġdaughter": 2016,
      "Ġwondered": 2017,
      "Ġcou": 2018,
      "cing": 2019,
      "cks": 2020,
      "Ġrainbow": 2021,
      "Ġmark": 2022,
      "Ġholding": 2023,
      "Ġnest": 2024,
      "ĠO": 2025,
      "Ġcow": 2026,
      "col": 2027,
      "Ġfit": 2028,
      "thday": 2029,
      "Ġsitting": 2030,
      "to": 2031,
      "Ġbranch": 2032,
      "ining": 2033,
      "Ġcir": 2034,
      "Ġboun": 2035,
      "Ġpig": 2036,
      "read": 2037,
      "ose": 2038,
      "Ġsick": 2039,
      "ĠFluffy": 2040,
      "raid": 2041,
      "ĠInside": 2042,
      "Ġob": 2043,
      "Ġafraid": 2044,
      "weet": 2045,
      "Ġcoat": 2046,
      "Ġpatient": 2047,
      "Ġround": 2048,
      "Ġkite": 2049,
      "pper": 2050,
      "Ġgift": 2051,
      "Ġdriver": 2052,
      "Ġmil": 2053,
      "Ġcute": 2054,
      "vered": 2055,
      "Ġforever": 2056,
      "Ġtou": 2057,
      "Ġtouched": 2058,
      "Ġpeace": 2059,
      "Ġrelieved": 2060,
      "Ġlift": 2061,
      "Ġpromise": 2062,
      "ours": 2063,
      "idge": 2064,
      "Ġbread": 2065,
      "Ġking": 2066,
      "Ġspoon": 2067,
      "Ġhuge": 2068,
      "Ġletter": 2069,
      "ĠCome": 2070,
      "Ġhello": 2071,
      "Ġcarry": 2072,
      "Ġgrab": 2073,
      "Of": 2074,
      "sting": 2075,
      "Ġfing": 2076,
      "Ġbirthday": 2077,
      "Ġband": 2078,
      "eth": 2079,
      "og": 2080,
      "Ġact": 2081,
      "ittens": 2082,
      "Ġcheese": 2083,
      "ĠFinally": 2084,
      "Ġpower": 2085,
      "ĠMama": 2086,
      "Ġintere": 2087,
      "let": 2088,
      "Ġexciting": 2089,
      "cer": 2090,
      "Ġdays": 2091,
      "Hey": 2092,
      "Ġswimming": 2093,
      "Ġshell": 2094,
      "Ġwhist": 2095,
      "unt": 2096,
      "Ġonto": 2097,
      "sc": 2098,
      "Ġgigg": 2099,
      "board": 2100,
      "Ġjourney": 2101,
      "Ġlaughing": 2102,
      "Ġcraw": 2103,
      "Ġcreature": 2104,
      "Ġwra": 2105,
      "Ġsunny": 2106,
      "Ġlife": 2107,
      "Ġkick": 2108,
      "Ġmist": 2109,
      "Ġdisco": 2110,
      "shine": 2111,
      "Ġcomfort": 2112,
      "Ġwom": 2113,
      "arp": 2114,
      "Ġret": 2115,
      "Ġwoman": 2116,
      "Ġhope": 2117,
      "ped": 2118,
      "itch": 2119,
      "gged": 2120,
      "Ġbush": 2121,
      "Ġgives": 2122,
      "Ġinstead": 2123,
      "Ġmilk": 2124,
      "Ġcozy": 2125,
      "Ġputs": 2126,
      "alm": 2127,
      "Ġbottle": 2128,
      "Ġinc": 2129,
      "gg": 2130,
      "Ġsharp": 2131,
      "Ġpointed": 2132,
      "Ġimag": 2133,
      "Ġspin": 2134,
      "ten": 2135,
      "Tommy": 2136,
      "ĠSoon": 2137,
      "Ġlucky": 2138,
      "Ġsunshine": 2139,
      "Ġear": 2140,
      "ness": 2141,
      "Ġcave": 2142,
      "Ġreturn": 2143,
      "Ġwatching": 2144,
      "Ġcollect": 2145,
      "Ġducks": 2146,
      "ĠSammy": 2147,
      "Ġpudd": 2148,
      "Ġaccidentally": 2149,
      "Ġhor": 2150,
      "Ġeas": 2151,
      "Ġlater": 2152,
      "Ġsmiling": 2153,
      "Ġsuc": 2154,
      "ball": 2155,
      "Ġhoney": 2156,
      "Ġroad": 2157,
      "Ġanyone": 2158,
      "Ġfan": 2159,
      "Ġspo": 2160,
      "Ġent": 2161,
      "blem": 2162,
      "Ġproblem": 2163,
      "Later": 2164,
      "ndp": 2165,
      "Ġbought": 2166,
      "els": 2167,
      "Ġtalked": 2168,
      "Bob": 2169,
      "itten": 2170,
      "ize": 2171,
      "Ġgather": 2172,
      "round": 2173,
      "Ġsearched": 2174,
      "Ġapples": 2175,
      "Ġperson": 2176,
      "Good": 2177,
      "Ġsandw": 2178,
      "Ġhealthy": 2179,
      "Ġce": 2180,
      "Ġmeet": 2181,
      "irt": 2182,
      "Ġtrouble": 2183,
      "Ġloves": 2184,
      "Ġcrayons": 2185,
      "Ġrope": 2186,
      "Ġinteresting": 2187,
      "Ġpop": 2188,
      "Ġclouds": 2189,
      "ont": 2190,
      "Ġtasty": 2191,
      "Ġsu": 2192,
      "Ġkiss": 2193,
      "Ġbutton": 2194,
      "Ġclever": 2195,
      "Ġplane": 2196,
      "amed": 2197,
      "Ġsmelled": 2198,
      "Ġadm": 2199,
      "ove": 2200,
      "Ġpile": 2201,
      "Ġwide": 2202,
      "Ġmach": 2203,
      "eb": 2204,
      "ĠTweet": 2205,
      "Ġmatter": 2206,
      "Ġzoom": 2207,
      "Lucy": 2208,
      "ÅĵI": 2209,
      "Ġpres": 2210,
      "Ġshining": 2211,
      "owed": 2212,
      "Ġpar": 2213,
      "Ġfront": 2214,
      "Ġorgan": 2215,
      "Ġprot": 2216,
      "ĠWith": 2217,
      "Ġfeather": 2218,
      "Ġeag": 2219,
      "aur": 2220,
      "Ġpath": 2221,
      "Ġvill": 2222,
      "ĠJimmy": 2223,
      "Ġstorm": 2224,
      "Ġspotted": 2225,
      "Ġrespect": 2226,
      "Ġscreamed": 2227,
      "Ġprotect": 2228,
      "Ġmud": 2229,
      "ĠEll": 2230,
      "Ġpract": 2231,
      "ndpa": 2232,
      "Ġzoo": 2233,
      "Come": 2234,
      "Ġpuzz": 2235,
      "Ġsaf": 2236,
      "Ġap": 2237,
      "Ġspid": 2238,
      "erly": 2239,
      "Ġval": 2240,
      "Ġsnake": 2241,
      "isa": 2242,
      "Ġmyster": 2243,
      "Ġasleep": 2244,
      "Ġlovely": 2245,
      "epend": 2246,
      "Ġbark": 2247,
      "Ġquest": 2248,
      "Ġwild": 2249,
      "Ġneighbor": 2250,
      "Ġappeared": 2251,
      "Ġanswer": 2252,
      "Ġseat": 2253,
      "ale": 2254,
      "Ġhorse": 2255,
      "Ġsnowman": 2256,
      "Ġpresent": 2257,
      "Ġdanced": 2258,
      "Ġcard": 2259,
      "Ġteach": 2260,
      "Ġhon": 2261,
      "oose": 2262,
      "Ġwhich": 2263,
      "Ġminut": 2264,
      "Ġpill": 2265,
      "Ġsur": 2266,
      "ĠSomet": 2267,
      "Ġcheer": 2268,
      "Ġthin": 2269,
      "ert": 2270,
      "Jim": 2271,
      "Ġgoes": 2272,
      "ond": 2273,
      "een": 2274,
      "ex": 2275,
      "Just": 2276,
      "Ġwhole": 2277,
      "Ġtries": 2278,
      "St": 2279,
      "Ġgently": 2280,
      "Ġforgive": 2281,
      "Ġwearing": 2282,
      "Ġmed": 2283,
      "ching": 2284,
      "ular": 2285,
      "Ġconfused": 2286,
      "Ġdi": 2287,
      "Molly": 2288,
      "Ġphone": 2289,
      "Ġcorner": 2290,
      "Ġplaces": 2291,
      "Ġimpress": 2292,
      "Ġgiant": 2293,
      "Every": 2294,
      "Ġrolled": 2295,
      "Ġteeth": 2296,
      "Ġdirt": 2297,
      "Ġtrip": 2298,
      "Ġmind": 2299,
      "Mum": 2300,
      "Ġrude": 2301,
      "Ġshr": 2302,
      "cean": 2303,
      "Ġslid": 2304,
      "Ġocean": 2305,
      "Ġlive": 2306,
      "ĠGo": 2307,
      "Ġspent": 2308,
      "izz": 2309,
      "Ġpretended": 2310,
      "itty": 2311,
      "Ġdrive": 2312,
      "Ġworm": 2313,
      "ĠEmily": 2314,
      "Ġash": 2315,
      "ssed": 2316,
      "Ġtasted": 2317,
      "ĠHow": 2318,
      "Ġsupp": 2319,
      "In": 2320,
      "Ġsplas": 2321,
      "Ġcalm": 2322,
      "Ġcookie": 2323,
      "la": 2324,
      "Ġlad": 2325,
      "Ġfaces": 2326,
      "Ġser": 2327,
      "Ġoven": 2328,
      "Ġpour": 2329,
      "nic": 2330,
      "Ġdelight": 2331,
      "Ġlay": 2332,
      "ĠMittens": 2333,
      "Ġcoin": 2334,
      "Ġlast": 2335,
      "Ġpicnic": 2336,
      "Ġwave": 2337,
      "Ġfurry": 2338,
      "Ġpan": 2339,
      "Ġfeet": 2340,
      "Ġrec": 2341,
      "ato": 2342,
      "Ġmachine": 2343,
      "Ġring": 2344,
      "Ġchick": 2345,
      "ones": 2346,
      "unk": 2347,
      "Ġhelpful": 2348,
      "Ġwip": 2349,
      "Ġeventually": 2350,
      "Ġban": 2351,
      "Ġpush": 2352,
      "Ġemb": 2353,
      "Ġremind": 2354,
      "Ġbubble": 2355,
      "ĠCh": 2356,
      "umber": 2357,
      "Ġladder": 2358,
      "Ġtomorrow": 2359,
      "Ġsack": 2360,
      "Ġcart": 2361,
      "Ġign": 2362,
      "Ġsal": 2363,
      "Ġrep": 2364,
      "Ġbell": 2365,
      "Ġcouch": 2366,
      "Ġtun": 2367,
      "Ġtid": 2368,
      "Ġneckl": 2369,
      "Ġspread": 2370,
      "Ġblew": 2371,
      "Ġspider": 2372,
      "Ġbuilding": 2373,
      "ator": 2374,
      "Ġstret": 2375,
      "Ġbugs": 2376,
      "arge": 2377,
      "Ġtool": 2378,
      "Ġsmooth": 2379,
      "Ġtalking": 2380,
      "Ġchocol": 2381,
      "Ġrob": 2382,
      "Ġfoot": 2383,
      "Ġsel": 2384,
      "Ġshy": 2385,
      "Ġhiding": 2386,
      "hile": 2387,
      "Ġmountain": 2388,
      "Ġknee": 2389,
      "ighed": 2390,
      "Ġfold": 2391,
      "als": 2392,
      "mo": 2393,
      "arra": 2394,
      "Ġchased": 2395,
      "Ġfighting": 2396,
      "ife": 2397,
      "Ġsongs": 2398,
      "not": 2399,
      "Soon": 2400,
      "Ġembarra": 2401,
      "Ġwore": 2402,
      "Ġleaf": 2403,
      "Ġpool": 2404,
      "Ġwrite": 2405,
      "Ġpuddle": 2406,
      "Ġvillage": 2407,
      "Ġwaiting": 2408,
      "Ġcannot": 2409,
      "Ġwhenever": 2410,
      "Ġant": 2411,
      "Ġfinish": 2412,
      "Ġstep": 2413,
      "My": 2414,
      "Ġcloth": 2415,
      "Ġtreats": 2416,
      "Ġhum": 2417,
      "lex": 2418,
      "ĠJenny": 2419,
      "Ġcross": 2420,
      "Ġpaw": 2421,
      "Ġmaybe": 2422,
      "Ġselfish": 2423,
      "Ġrobot": 2424,
      "Ġbanan": 2425,
      "ĠSometimes": 2426,
      "oph": 2427,
      "Ġchocolate": 2428,
      "Ġcoo": 2429,
      "Ġtaste": 2430,
      "box": 2431,
      "ult": 2432,
      "ĠJust": 2433,
      "Ġbarked": 2434,
      "Ġstring": 2435,
      "Ġspe": 2436,
      "ĠEverywhere": 2437,
      "Ġlarge": 2438,
      "Ġnet": 2439,
      "ĠSt": 2440,
      "Please": 2441,
      "Ġpeaceful": 2442,
      "Ġtidy": 2443,
      "Ġstra": 2444,
      "Mama": 2445,
      "Ġsol": 2446,
      "Ġcolour": 2447,
      "umpy": 2448,
      "Ġwash": 2449,
      "Ġgen": 2450,
      "elly": 2451,
      "Ġnecklace": 2452,
      "Ġple": 2453,
      "Ġfixed": 2454,
      "Ġshelf": 2455,
      "lice": 2456,
      "old": 2457,
      "Ġstone": 2458,
      "ĠPlease": 2459,
      "hnn": 2460,
      "Ġscar": 2461,
      "Ġspray": 2462,
      "lebr": 2463,
      "Ġ'": 2464,
      "arm": 2465,
      "Ġstir": 2466,
      "Dad": 2467,
      "ĠLe": 2468,
      "Ġcelebr": 2469,
      "orry": 2470,
      "ĠJake": 2471,
      "oin": 2472,
      "ĠTV": 2473,
      "iger": 2474,
      "ungle": 2475,
      "ird": 2476,
      "Ġmissed": 2477,
      "Now": 2478,
      "Ġdeter": 2479,
      "Ġcrab": 2480,
      "Ġhears": 2481,
      "Ġcreative": 2482,
      "ĠTheir": 2483,
      "Ġembarrassed": 2484,
      "Ġtrust": 2485,
      "Ġjungle": 2486,
      "Ġforward": 2487,
      "airs": 2488,
      "Ġwhis": 2489,
      "Ġdeterm": 2490,
      "Ġjumping": 2491,
      "hnny": 2492,
      "Ġsticks": 2493,
      "ĠSome": 2494,
      "urse": 2495,
      "Ġcarrots": 2496,
      "Ġsharing": 2497,
      "Ġhel": 2498,
      "Ġlanded": 2499,
      "Ġwhistle": 2500,
      "Ġplate": 2501,
      "most": 2502,
      "Ġshirt": 2503,
      "Ġdisappoin": 2504,
      "Ġtells": 2505,
      "Ġknocked": 2506,
      "Ġtea": 2507,
      "ned": 2508,
      "ets": 2509,
      "ian": 2510,
      "ĠAnn": 2511,
      "Ġmoon": 2512,
      "Ġlegs": 2513,
      "Ġdecor": 2514,
      "Ġalmost": 2515,
      "ĠDon": 2516,
      "Ġsour": 2517,
      "Ġemp": 2518,
      "Ġashamed": 2519,
      "getable": 2520,
      "dge": 2521,
      "Ġempty": 2522,
      "Ġgrew": 2523,
      "ground": 2524,
      "Ġvegetable": 2525,
      "Ġgray": 2526,
      "Ġsheep": 2527,
      "ĠLisa": 2528,
      "Ġgener": 2529,
      "Ġbreath": 2530,
      "ying": 2531,
      "Ġsplash": 2532,
      "Sarah": 2533,
      "Ġmeant": 2534,
      "Be": 2535,
      "Ġtightly": 2536,
      "Ġpolice": 2537,
      "aking": 2538,
      "Ġsave": 2539,
      "Ġmeadow": 2540,
      "erp": 2541,
      "Ġbal": 2542,
      "Ġgas": 2543,
      "Ġstood": 2544,
      "Ġwhisp": 2545,
      "ĠWhy": 2546,
      "Ġyelled": 2547,
      "dle": 2548,
      "Ġjew": 2549,
      "Ġunderstood": 2550,
      "To": 2551,
      "Ġnods": 2552,
      "ĠOn": 2553,
      "Ġhonest": 2554,
      "Ġthese": 2555,
      "ital": 2556,
      "Ġber": 2557,
      "Ġdisappointed": 2558,
      "Ġpay": 2559,
      "Ġcarried": 2560,
      "Ġsnacks": 2561,
      "arl": 2562,
      "Ġsuccess": 2563,
      "den": 2564,
      "Ġpillow": 2565,
      "Ġhosp": 2566,
      "Ġkitten": 2567,
      "Ġhours": 2568,
      "Ġseek": 2569,
      "ustr": 2570,
      "Ġhospital": 2571,
      "Ġgold": 2572,
      "Ġgun": 2573,
      "Ġsparkly": 2574,
      "Ġship": 2575,
      "ĠTeddy": 2576,
      "Ġbored": 2577,
      "Stop": 2578,
      "Ġline": 2579,
      "Ġnut": 2580,
      "ork": 2581,
      "Ġpizz": 2582,
      "vous": 2583,
      "Ġlem": 2584,
      "Ġpowerful": 2585,
      "Ġspicy": 2586,
      "Where": 2587,
      "obby": 2588,
      "kin": 2589,
      "Ġshore": 2590,
      "Ġplants": 2591,
      "ano": 2592,
      "ĠEven": 2593,
      "Ġbedroom": 2594,
      "Ġgenerous": 2595,
      "Ġfrustr": 2596,
      "Ġtest": 2597,
      "Ġpuzzle": 2598,
      "Ġhidden": 2599,
      "Ġjelly": 2600,
      "body": 2601,
      "ĠBe": 2602,
      "ĠTogether": 2603,
      "ony": 2604,
      "hin": 2605,
      "ina": 2606,
      "Ġtaught": 2607,
      "Ġeasy": 2608,
      "Ġdrew": 2609,
      "Ġwaves": 2610,
      "Ġglass": 2611,
      "ĠZ": 2612,
      "Ġreturned": 2613,
      "Ġfear": 2614,
      "Ġmysterious": 2615,
      "iff": 2616,
      "Ġsighed": 2617,
      "ĠMum": 2618,
      "Ġstanding": 2619,
      "Ġmot": 2620,
      "Ġfeed": 2621,
      "Ġseed": 2622,
      "Ġscarf": 2623,
      "Ġdetermined": 2624,
      "Ġpin": 2625,
      "Ġclass": 2626,
      "ĠRex": 2627,
      "Ġknowing": 2628,
      "Ġgroup": 2629,
      "Ġblow": 2630,
      "Ġkissed": 2631,
      "cles": 2632,
      "Ġchew": 2633,
      "Ġpizza": 2634,
      "itter": 2635,
      "Ġvan": 2636,
      "Ġhur": 2637,
      "Ġthankful": 2638,
      "erpill": 2639,
      "Ġcaterpill": 2640,
      "Ġpolite": 2641,
      "Ġfinger": 2642,
      "Ġav": 2643,
      "Ġcries": 2644,
      "Ġsleepy": 2645,
      "Ġmessy": 2646,
      "Ġner": 2647,
      "Ġfrustrated": 2648,
      "Ġpri": 2649,
      "Ġcloset": 2650,
      "gly": 2651,
      "Ġyourself": 2652,
      "aul": 2653,
      "Ġminutes": 2654,
      "'d": 2655,
      "Jane": 2656,
      "Ġtears": 2657,
      "Ġfancy": 2658,
      "Ġhang": 2659,
      "Sorry": 2660,
      "Ġburn": 2661,
      "There": 2662,
      "Ġugly": 2663,
      "Ġsold": 2664,
      "Ġpoor": 2665,
      "work": 2666,
      "Ġnervous": 2667,
      "Ġgate": 2668,
      "Ġsandwich": 2669,
      "Ġrad": 2670,
      "Ġprince": 2671,
      "ĠPeter": 2672,
      "Ġwis": 2673,
      "Ġcrown": 2674,
      "Ġfig": 2675,
      "era": 2676,
      "Ġlock": 2677,
      "Ġesc": 2678,
      "Ġreg": 2679,
      "Ġspoil": 2680,
      "usie": 2681,
      "Ġgrumpy": 2682,
      "oof": 2683,
      "Are": 2684,
      "oop": 2685,
      "Ġwolf": 2686,
      "Ġpassed": 2687,
      "Ġtick": 2688,
      "Ġpir": 2689,
      "pack": 2690,
      "Ġtwirl": 2691,
      "ote": 2692,
      "Ġhopping": 2693,
      "Ġgathered": 2694,
      "Ġexcite": 2695,
      "Ġbridge": 2696,
      "Ġscr": 2697,
      "af": 2698,
      "Ġoften": 2699,
      "Ġmummy": 2700,
      "iddle": 2701,
      "fl": 2702,
      "Ġflag": 2703,
      "ensive": 2704,
      "Ġchest": 2705,
      "Ġdrop": 2706,
      "osaur": 2707,
      "Ġexpensive": 2708,
      "selves": 2709,
      "Ġcaterpillar": 2710,
      "Ġboring": 2711,
      "Ġvase": 2712,
      "Ġtent": 2713,
      "issors": 2714,
      "Ġtaken": 2715,
      "illed": 2716,
      "sist": 2717,
      "Their": 2718,
      "Ġmir": 2719,
      "Ġpress": 2720,
      "Ġlit": 2721,
      "Ġleg": 2722,
      "mb": 2723,
      "Ġsaved": 2724,
      "Ġcand": 2725,
      "Ġscissors": 2726,
      "izzy": 2727,
      "Ġfil": 2728,
      "Ġdinosaur": 2729,
      "Ġgets": 2730,
      "Ġdancing": 2731,
      "Ġanswered": 2732,
      "Ġtrue": 2733,
      "Ġpicks": 2734,
      "Ġexcitement": 2735,
      "Ġworking": 2736,
      "Ġdeer": 2737,
      "Ġones": 2738,
      "Ġspend": 2739,
      "Who": 2740,
      "ual": 2741,
      "Ġmistake": 2742,
      "Ġclown": 2743,
      "Ġwagged": 2744,
      "Ġmiddle": 2745,
      "uce": 2746,
      "Ġboss": 2747,
      "ĠBr": 2748,
      "Ġfruits": 2749,
      "ror": 2750,
      "que": 2751,
      "ella": 2752,
      "Ġgiggled": 2753,
      "Ġwander": 2754,
      "Ġtie": 2755,
      "Ġpleased": 2756,
      "Ġcomfortable": 2757,
      "ser": 2758,
      "ecially": 2759,
      "Ġbrush": 2760,
      "light": 2761,
      "Ġmov": 2762,
      "Ġknight": 2763,
      "ĠOK": 2764,
      "ates": 2765,
      "Ġmedic": 2766,
      "Ġrocket": 2767,
      "ĠLeo": 2768,
      "Ġpacked": 2769,
      "Ġasking": 2770,
      "ugar": 2771,
      "Ġok": 2772,
      "Ġbone": 2773,
      "Ġmatch": 2774,
      "Sp": 2775,
      "pecially": 2776,
      "ots": 2777,
      "Ġstuff": 2778,
      "Ġespecially": 2779,
      "Ġdrum": 2780,
      "Ġdest": 2781,
      "Ġsight": 2782,
      "iness": 2783,
      "Ġwalks": 2784,
      "Ġvegetables": 2785,
      "ĠNo": 2786,
      "Ġnumber": 2787,
      "Ġdogs": 2788,
      "Ġmedicine": 2789,
      "Jimmy": 2790,
      "Ġdistance": 2791,
      "Ġadd": 2792,
      "ushed": 2793,
      "Ġdrawing": 2794,
      "Ġcalling": 2795,
      "Ġsmelly": 2796,
      "ggs": 2797,
      "Ġclap": 2798,
      "Ġlazy": 2799,
      "Ġchange": 2800,
      "Ġlose": 2801,
      "Ġtape": 2802,
      "Ġsugar": 2803,
      "Ġcap": 2804,
      "Ġfake": 2805,
      "Ġweak": 2806,
      "Ġeggs": 2807,
      "Ġtwist": 2808,
      "Ġmoving": 2809,
      "Ġmirror": 2810,
      "ĠJohnny": 2811,
      "Ġplayground": 2812,
      "ĠBl": 2813,
      "Ġdisappeared": 2814,
      "ha": 2815,
      "aged": 2816,
      "Ġglue": 2817,
      "Ġlying": 2818,
      "Ġgar": 2819,
      "Ġbecome": 2820,
      "Ġlicked": 2821,
      "ĠIf": 2822,
      "Ġweek": 2823,
      "Ġcage": 2824,
      "ete": 2825,
      "Ġexam": 2826,
      "ory": 2827,
      "Ġsweetie": 2828,
      "Ġflut": 2829,
      "Ġfeathers": 2830,
      "Ġnod": 2831,
      "Ġwheel": 2832,
      "Ġhorn": 2833,
      "Ġfluffy": 2834,
      "elp": 2835,
      "Me": 2836,
      "Ġbake": 2837,
      "Ġruined": 2838,
      "Ġeld": 2839,
      "Ġdish": 2840,
      "Ġsplashed": 2841,
      "Ġdrank": 2842,
      "Ġbathroom": 2843,
      "Ġyours": 2844,
      "Ġrid": 2845,
      "Ġmeasure": 2846,
      "Ġlead": 2847,
      "Ġbody": 2848,
      "Ġfamous": 2849,
      "Ġroar": 2850,
      "Ġrelax": 2851,
      "Ġincred": 2852,
      "ating": 2853,
      "Ġsell": 2854,
      "Ġnoisy": 2855,
      "Ġquestions": 2856,
      "Ġmic": 2857,
      "Ġskipped": 2858,
      "Ġqueen": 2859,
      "uggest": 2860,
      "Ġed": 2861,
      "Ġsuggest": 2862,
      "Ġstones": 2863,
      "Ġballs": 2864,
      "Ġdecide": 2865,
      "Ġlemon": 2866,
      "Sally": 2867,
      "hip": 2868,
      "Ġcri": 2869,
      "Ġclear": 2870,
      "Ġmoms": 2871,
      "ination": 2872,
      "Ġext": 2873,
      "Ġjuicy": 2874,
      "yal": 2875,
      "Ġshows": 2876,
      "Ġcovered": 2877,
      "Ġord": 2878,
      "Ġcheck": 2879,
      "Ġlamp": 2880,
      "Ġglow": 2881,
      "Ġcontent": 2882,
      "Billy": 2883,
      "Joe": 2884,
      "Help": 2885,
      "Ġswan": 2886,
      "eez": 2887,
      "Ġpray": 2888,
      "Ġeager": 2889,
      "Ġrich": 2890,
      "Ġdig": 2891,
      "Ġwrote": 2892,
      "Ġtowel": 2893,
      "Ġmotor": 2894,
      "illi": 2895,
      "enny": 2896,
      "?\".": 2897,
      "Ġshoot": 2898,
      "Ġincredible": 2899,
      "Ġind": 2900,
      "ĠAt": 2901,
      "Ġsailed": 2902,
      "Ġteam": 2903,
      "alous": 2904,
      "Ġcleaned": 2905,
      "Jill": 2906,
      "Ġrare": 2907,
      "Ġsoap": 2908,
      "Ġjealous": 2909,
      "Ġfather": 2910,
      "Ġadventur": 2911,
      "Ġloyal": 2912,
      "Ġorganized": 2913,
      "Ġcoins": 2914,
      "Ġfine": 2915,
      "Ġboard": 2916,
      "Ġbranches": 2917,
      "Ġextra": 2918,
      "Ġboys": 2919,
      "Ġmap": 2920,
      "umbled": 2921,
      "Ġneeds": 2922,
      "Ġelderly": 2923,
      "ĠEnd": 2924,
      "Ġaw": 2925,
      "Ġborrow": 2926,
      "Ġfigure": 2927,
      "imp": 2928,
      "Ġadventurous": 2929,
      "Ġhurts": 2930,
      "Gra": 2931,
      "Ġcost": 2932,
      "Ġchicken": 2933,
      "Ġbubbles": 2934,
      "Ġdiscovered": 2935,
      "Ġmod": 2936,
      "keep": 2937,
      "Ġfis": 2938,
      "Ġham": 2939,
      "Ġfrown": 2940,
      "ĠLittle": 2941,
      "Ġtag": 2942,
      "Ġtiger": 2943,
      "Ġrealised": 2944,
      "Ġjoke": 2945,
      "Ġgarage": 2946,
      "land": 2947,
      "Well": 2948,
      "Ġoffered": 2949,
      "Ġhappening": 2950,
      "asing": 2951,
      "ately": 2952,
      "Ġcolourful": 2953,
      "Ġstraw": 2954,
      "ique": 2955,
      "ipper": 2956,
      "Ġcover": 2957,
      "fic": 2958,
      "Ġchase": 2959,
      "Ġwand": 2960,
      "Amy": 2961,
      "Ġlouder": 2962,
      "Ġarg": 2963,
      "Ġjewel": 2964,
      "cil": 2965,
      "Ġtrucks": 2966,
      "ti": 2967,
      "Ġhose": 2968,
      "Ġlifted": 2969,
      "Ġunique": 2970,
      "Ġpencil": 2971,
      "Ġeye": 2972,
      "Ġsword": 2973,
      "cept": 2974,
      "Ġdiffic": 2975,
      "Ġweird": 2976,
      "Ġpump": 2977,
      "ipp": 2978,
      "ured": 2979,
      "Ġyog": 2980,
      "Ġonce": 2981,
      "Ġbottom": 2982,
      "imed": 2983,
      "Ġsil": 2984,
      "Ġword": 2985,
      "Ġmanaged": 2986,
      "Ġbalance": 2987,
      "Ġknife": 2988,
      "Ġcircle": 2989,
      "Ġthick": 2990,
      "Ġunus": 2991,
      "Ġtoug": 2992,
      "Ġhunt": 2993,
      "alk": 2994,
      "Ġcrawled": 2995,
      "Ġmighty": 2996,
      "Ġguess": 2997,
      "Ġdifficult": 2998,
      "Ġang": 2999,
      "Mummy": 3000,
      "Sue": 3001,
      "Ġwhale": 3002,
      "Ġfright": 3003,
      "Ġbanana": 3004,
      "Ġbarn": 3005,
      "keeper": 3006,
      "Ġunusual": 3007,
      "ĠKitty": 3008,
      "port": 3009,
      "Ġkindness": 3010,
      "ages": 3011,
      "Ġgiving": 3012,
      "Ġfour": 3013,
      "aw": 3014,
      "Ġberries": 3015,
      "Spot": 3016,
      "Ġedge": 3017,
      "Ġdolp": 3018,
      "Ġlaughs": 3019,
      "ĠBlue": 3020,
      "iv": 3021,
      "Ġshake": 3022,
      "olog": 3023,
      "ĠSusie": 3024,
      "How": 3025,
      "Here": 3026,
      "Ġrecord": 3027,
      "Ġfool": 3028,
      "Ġharder": 3029,
      "rag": 3030,
      "Ġturt": 3031,
      "Ġadded": 3032,
      "Ġdizzy": 3033,
      "ym": 3034,
      "lla": 3035,
      "Ġlearning": 3036,
      "Ġwrapped": 3037,
      "Ġgoat": 3038,
      "head": 3039,
      "Ġapolog": 3040,
      "ĠMark": 3041,
      "Ġballoons": 3042,
      "ĠBrown": 3043,
      "ola": 3044,
      "Ġfavour": 3045,
      "Ġpointing": 3046,
      "Ġguit": 3047,
      "Ġvalu": 3048,
      "Ġtough": 3049,
      "ready": 3050,
      "Ġsmoke": 3051,
      "Ġspun": 3052,
      "Ġcab": 3053,
      "Ġboxes": 3054,
      "Ġhero": 3055,
      "Ġears": 3056,
      "Ġenjoying": 3057,
      "ject": 3058,
      "Ġgrown": 3059,
      "Ġhats": 3060,
      "Ġbelonged": 3061,
      "Ġmeans": 3062,
      "Ġloudly": 3063,
      "Ġcompet": 3064,
      "Ġdepend": 3065,
      "Ġnorm": 3066,
      "erry": 3067,
      "Ġmovie": 3068,
      "Ġharm": 3069,
      "Ġshape": 3070,
      "Ġmarket": 3071,
      "Ġcircles": 3072,
      "Ġisland": 3073,
      "Ġbloom": 3074,
      "Ġbald": 3075,
      "Ġimpressed": 3076,
      "Ġagainst": 3077,
      "Ġref": 3078,
      "rage": 3079,
      "Ġalready": 3080,
      "Ġsearch": 3081,
      "uggled": 3082,
      "Ġbrothers": 3083,
      "Ġbrilli": 3084,
      "Ġchoose": 3085,
      "Ġcabin": 3086,
      "Ġfavourite": 3087,
      "und": 3088,
      "lies": 3089,
      "Ġsaying": 3090,
      "Ġfalls": 3091,
      "Ġskin": 3092,
      "Ġflash": 3093,
      "ery": 3094,
      "Ġbuttons": 3095,
      "ature": 3096,
      "Ġpainting": 3097,
      "ĠBobby": 3098,
      "ye": 3099,
      "Ġbrilliant": 3100,
      "Ġclay": 3101,
      "pes": 3102,
      "Ġdreamed": 3103,
      "Ġsafely": 3104,
      "Ġhelps": 3105,
      "Ġgrace": 3106,
      "Ġter": 3107,
      "Ġtrunk": 3108,
      "ilt": 3109,
      "Ġstrawber": 3110,
      "anged": 3111,
      "Ġbossy": 3112,
      "ouses": 3113,
      "Ġnormal": 3114,
      "Ġscare": 3115,
      "Ġwrap": 3116,
      "Ġpee": 3117,
      "Ġbatter": 3118,
      "Ġguitar": 3119,
      "Ġstubb": 3120,
      "Ġjack": 3121,
      "emo": 3122,
      "ĠDan": 3123,
      "Ġcrayon": 3124,
      "Ġfat": 3125,
      "fast": 3126,
      "Ġrough": 3127,
      "Ġslipped": 3128,
      "Ġcher": 3129,
      "Ġmelt": 3130,
      "Ġknows": 3131,
      "Ġproudly": 3132,
      "Ġwagon": 3133,
      "Ġvaluable": 3134,
      "Ġhouses": 3135,
      "Ġcudd": 3136,
      "gy": 3137,
      "Ġlog": 3138,
      "Ġbreakfast": 3139,
      "Ġfrightened": 3140,
      "Ġcheerful": 3141,
      "Ġfoolish": 3142,
      "Ġstubborn": 3143,
      "ipe": 3144,
      "Ġcro": 3145,
      "Ġcompetit": 3146,
      "Ġescape": 3147,
      "Ġhappiness": 3148,
      "ĠMy": 3149,
      "cient": 3150,
      "Ġpil": 3151,
      "omed": 3152,
      "Ġlibr": 3153,
      "ĠToday": 3154,
      "Ġinvited": 3155,
      "Ġwake": 3156,
      "apping": 3157,
      "reen": 3158,
      "Ġfridge": 3159,
      "Ġnosy": 3160,
      "Ġstudy": 3161,
      "Ġlaw": 3162,
      "Ġshark": 3163,
      "Ġancient": 3164,
      "ĠEllie": 3165,
      "Ġnotice": 3166,
      "Ġbirdie": 3167,
      "Ġturtle": 3168,
      "Ġwalls": 3169,
      "Ġthu": 3170,
      "edient": 3171,
      "Ġcity": 3172,
      "Ġuseful": 3173,
      "ĠFred": 3174,
      "ext": 3175,
      "Ġspace": 3176,
      "Ġstri": 3177,
      "Ġdelicate": 3178,
      "Ġsounded": 3179,
      "az": 3180,
      "Ġterri": 3181,
      "Ġaccept": 3182,
      "orge": 3183,
      "Ġunl": 3184,
      "Ġicy": 3185,
      "Ġtimes": 3186,
      "wards": 3187,
      "Ġfier": 3188,
      "Ġtoast": 3189,
      "Ġwiped": 3190,
      "Ġdead": 3191,
      "Ġlights": 3192,
      "Ġlean": 3193,
      "Ġshells": 3194,
      "ĠRose": 3195,
      "Ġdesign": 3196,
      "Ġexcla": 3197,
      "Ġoffice": 3198,
      "Ġroof": 3199,
      "Ġdependable": 3200,
      "Ġfierce": 3201,
      "Ġdreams": 3202,
      "Ġexclaimed": 3203,
      "Ġnicely": 3204,
      "Ġmixed": 3205,
      "ĠBobo": 3206,
      "Ġtools": 3207,
      "Ġlocked": 3208,
      "Ġobedient": 3209,
      "Ġsuggested": 3210,
      "Ġbags": 3211,
      "Ġfingers": 3212,
      "Ġgrandpa": 3213,
      "Ġkinds": 3214,
      "Ġsmaller": 3215,
      "ache": 3216,
      "Ġcam": 3217,
      "Ġcounted": 3218,
      "arth": 3219,
      "Ġstream": 3220,
      "Ġdough": 3221,
      "Ġrode": 3222,
      "Ġlab": 3223,
      "Ġrose": 3224,
      "Ġparrot": 3225,
      "ĠMrs": 3226,
      "Ġstove": 3227,
      "Ġabove": 3228,
      "Ġexcitedly": 3229,
      "Ġrat": 3230,
      "Ġweal": 3231,
      "Ġpoured": 3232,
      "Ġmem": 3233,
      "Ġtele": 3234,
      "Ġlow": 3235,
      "corn": 3236,
      "Ġzip": 3237,
      "ention": 3238,
      "Ġbitter": 3239,
      "Ġstumbled": 3240,
      "kn": 3241,
      "ÅĵLet": 3242,
      "Ġjam": 3243,
      "Ġshadow": 3244,
      "Ġfountain": 3245,
      "Ġshowing": 3246,
      "na": 3247,
      "Ġscrat": 3248,
      "Ġcrack": 3249,
      "Ġsuccessful": 3250,
      "Ġegg": 3251,
      "eorge": 3252,
      "ado": 3253,
      "ĠPete": 3254,
      "Ġusing": 3255,
      "Ġbushes": 3256,
      "oot": 3257,
      "Ġexplored": 3258,
      "Ġwitch": 3259,
      "Ġcop": 3260,
      "Ġthemselves": 3261,
      "Ġbrightly": 3262,
      "arry": 3263,
      "Ġtomato": 3264,
      "Ġindepend": 3265,
      "Ġspinning": 3266,
      "uth": 3267,
      "Ġswe": 3268,
      "Ġfrag": 3269,
      "ither": 3270,
      "Ġresc": 3271,
      "Ġpractice": 3272,
      "Ġwhispered": 3273,
      "irp": 3274,
      "ĠElla": 3275,
      "Ġadmired": 3276,
      "inal": 3277,
      "Ġreminded": 3278,
      "Ġpumpkin": 3279,
      "Ġgem": 3280,
      "Em": 3281,
      "Ġtwig": 3282,
      "Ġcostum": 3283,
      "ĠTweety": 3284,
      "Ġjolly": 3285,
      "Ġshone": 3286,
      "Ġseem": 3287,
      "dom": 3288,
      "Ġorig": 3289,
      "Ġperform": 3290,
      "Ġkicked": 3291,
      "ĠYour": 3292,
      "Ġbuilt": 3293,
      "Ġsniff": 3294,
      "Ġbounce": 3295,
      "Ġstronger": 3296,
      "Ġways": 3297,
      "Ġmagn": 3298,
      "Ġdelighted": 3299,
      "ormous": 3300,
      "Ġpopcorn": 3301,
      "!\".": 3302,
      "Ġbump": 3303,
      "Ġsteal": 3304,
      "Ġson": 3305,
      "Ġbeak": 3306,
      "Ġcleaning": 3307,
      "iable": 3308,
      "Ġenormous": 3309,
      "oppy": 3310,
      "known": 3311,
      "Ġfre": 3312,
      "ĠU": 3313,
      "ines": 3314,
      "Ġspoiled": 3315,
      "Ġraced": 3316,
      "Ġenc": 3317,
      "Ġjoined": 3318,
      "vice": 3319,
      "Ġtummy": 3320,
      "Ġthoughtful": 3321,
      "Ġprint": 3322,
      "Ġaunt": 3323,
      "eeze": 3324,
      "Ġbees": 3325,
      "Ġfragile": 3326,
      "Ġdust": 3327,
      "Ġindependent": 3328,
      "ray": 3329,
      "Ġdove": 3330,
      "Ġeng": 3331,
      "Ġhoop": 3332,
      "Ġtunn": 3333,
      "Ġjog": 3334,
      "Ġplayful": 3335,
      "Ġhammer": 3336,
      "Ġreliable": 3337,
      "Ġchanged": 3338,
      "Ġoriginal": 3339,
      "amond": 3340,
      "ĠNemo": 3341,
      "ict": 3342,
      "anger": 3343,
      "Ġhelm": 3344,
      "anut": 3345,
      "Ġhanded": 3346,
      "Ġunknown": 3347,
      "upid": 3348,
      "cod": 3349,
      "Ġboats": 3350,
      "Ġrubb": 3351,
      "Ġsolve": 3352,
      "uring": 3353,
      "Ġyarn": 3354,
      "Ġdiamond": 3355,
      "Ġfinding": 3356,
      "Ġmetal": 3357,
      "Ġcone": 3358,
      "Ġbean": 3359,
      "ĠBu": 3360,
      "Ġleaving": 3361,
      "ĠAlice": 3362,
      "Ġchose": 3363,
      "Ġpainted": 3364,
      "Ġserious": 3365,
      "See": 3366,
      "atter": 3367,
      "inary": 3368,
      "Ġhalf": 3369,
      "gu": 3370,
      "Ġsink": 3371,
      "Ġpost": 3372,
      "Ġhairy": 3373,
      "Ġallowed": 3374,
      "Ġclum": 3375,
      "Ġholds": 3376,
      "Ġdoesn": 3377,
      "Ġloll": 3378,
      "Ġstat": 3379,
      "Ġacorn": 3380,
      "ipop": 3381,
      "Ġhay": 3382,
      "Ġthose": 3383,
      "ĠDucky": 3384,
      "Ġcamera": 3385,
      "Ġrub": 3386,
      "Ġmarble": 3387,
      "mbre": 3388,
      "Ġcheap": 3389,
      "Ġyet": 3390,
      "Ġumbre": 3391,
      "Ġcrocod": 3392,
      "ience": 3393,
      "Ġbeet": 3394,
      "Ġlollipop": 3395,
      "ĠMar": 3396,
      "Ġstupid": 3397,
      "ebra": 3398,
      "Ġcompass": 3399,
      "Ġgrand": 3400,
      "robe": 3401,
      "Ġopens": 3402,
      "Ġtelling": 3403,
      "Ġguard": 3404,
      "Ġforth": 3405,
      "Ġsleeping": 3406,
      "Ġwealthy": 3407,
      "Ġmis": 3408,
      "Ġsalad": 3409,
      "Ġpicking": 3410,
      "Ġstairs": 3411,
      "Ġgasped": 3412,
      "ĠMike": 3413,
      "Ġgoose": 3414,
      "Ġthirst": 3415,
      "Ġbrace": 3416,
      "ĠWhenever": 3417,
      "tern": 3418,
      "Ġsunfl": 3419,
      "Ġthunder": 3420,
      "ugged": 3421,
      "Ġtank": 3422,
      "Ġrushed": 3423,
      "iew": 3424,
      "ilty": 3425,
      "Ġarrow": 3426,
      "Ġenvel": 3427,
      "Ġguilty": 3428,
      "Ġangel": 3429,
      "Ġmoder": 3430,
      "ision": 3431,
      "Ġclumsy": 3432,
      "Ġpotato": 3433,
      "Ġterrible": 3434,
      "Ġzebra": 3435,
      "ÅĵYes": 3436,
      "Go": 3437,
      "Ġwashed": 3438,
      "Ġtor": 3439,
      "Ġcur": 3440,
      "Ġview": 3441,
      "Ġknock": 3442,
      "Ġthinking": 3443,
      "Ġbarber": 3444,
      "Ġbull": 3445,
      "Ġdolphin": 3446,
      "Ġrug": 3447,
      "Ġpeanut": 3448,
      "Ġprep": 3449,
      "ĠFin": 3450,
      "ĠBella": 3451,
      "Ġing": 3452,
      "Ġpopular": 3453,
      "Ġdull": 3454,
      "Ġpebble": 3455,
      "Ġmissing": 3456,
      "Ġpige": 3457,
      "Ġsquare": 3458,
      "Ġregular": 3459,
      "Ġthirsty": 3460,
      "Ġadvice": 3461,
      "ÅĵWhat": 3462,
      "Ġflex": 3463,
      "Ġsearching": 3464,
      "Ġingred": 3465,
      "Ġingredient": 3466,
      "Ġcreate": 3467,
      "Ġtem": 3468,
      "Ġmarch": 3469,
      "umbers": 3470,
      "Ġcareless": 3471,
      "Ġpersist": 3472,
      "Ġfresh": 3473,
      "ations": 3474,
      "Ġdeliver": 3475,
      "time": 3476,
      "Ġnurse": 3477,
      "com": 3478,
      "Ġchar": 3479,
      "Ġrubbed": 3480,
      "het": 3481,
      "Ġclock": 3482,
      "Ġmodern": 3483,
      "Ġstage": 3484,
      "illa": 3485,
      "Ġcompassion": 3486,
      "Ġstranger": 3487,
      "Ġload": 3488,
      "Ġsuit": 3489,
      "Ġsauce": 3490,
      "Ġshocked": 3491,
      "gest": 3492,
      "ibb": 3493,
      "Ġcarrying": 3494,
      "eezed": 3495,
      "Ġnature": 3496,
      "Ġdriving": 3497,
      "ĠGrandpa": 3498,
      "Ġflashlight": 3499,
      "Ġimpressive": 3500,
      "ĠSn": 3501,
      "Ġstops": 3502,
      "Ġpatch": 3503,
      "uper": 3504,
      "Ġgraceful": 3505,
      "Ġsne": 3506,
      "aghet": 3507,
      "aghetti": 3508,
      "oomy": 3509,
      "Ġshiver": 3510,
      "Ġshel": 3511,
      "Ġdestro": 3512,
      "Ow": 3513,
      "Ġfriendship": 3514,
      "Ġsparkled": 3515,
      "Ġflexible": 3516,
      "fa": 3517,
      "Ġbiggest": 3518,
      "Ġdreaming": 3519,
      "Mary": 3520,
      "Ġtied": 3521,
      "Ġending": 3522,
      "Ġengine": 3523,
      "âĤ¬âĢ": 3524,
      "Ġjacket": 3525,
      "Ġwheels": 3526,
      "Ġpirate": 3527,
      "Ġreward": 3528,
      "Ġbeetle": 3529,
      "Ġwing": 3530,
      "Ġsudden": 3531,
      "host": 3532,
      "Ġcrocodile": 3533,
      "ÅĵIt": 3534,
      "Ġpup": 3535,
      "Ġseeds": 3536,
      "Ġpeeked": 3537,
      "Ġspaghetti": 3538,
      "Ġenth": 3539,
      "Ġpant": 3540,
      "Ġdesk": 3541,
      "Ġmeal": 3542,
      "isk": 3543,
      "ellig": 3544,
      "Ġnumbers": 3545,
      "arsh": 3546,
      "Ġorder": 3547,
      "Ġcomput": 3548,
      "ikes": 3549,
      "Ġintellig": 3550,
      "Ġwarned": 3551,
      "Ġcrazy": 3552,
      "Ġpengu": 3553,
      "Ġtowers": 3554,
      "Ġstamp": 3555,
      "loo": 3556,
      "Ġumbrella": 3557,
      "Ġspilled": 3558,
      "Ġdiscover": 3559,
      "Ġenthus": 3560,
      "Ġsadly": 3561,
      "ĠFr": 3562,
      "Ġnote": 3563,
      "Ġghost": 3564,
      "Ġstatue": 3565,
      "Ġpattern": 3566,
      "Ġtur": 3567,
      "Ġmask": 3568,
      "Ġmel": 3569,
      "ĠMummy": 3570,
      "Ġenv": 3571,
      "Ġmailbox": 3572,
      "ement": 3573,
      "Ġtruth": 3574,
      "Ġwindows": 3575,
      "Ġingredients": 3576,
      "Ġer": 3577,
      "Ġstack": 3578,
      "Ġtravel": 3579,
      "ophie": 3580,
      "Ġsurf": 3581,
      "Ġcomb": 3582,
      "Ġprize": 3583,
      "ĠWhile": 3584,
      "Ġearly": 3585,
      "ief": 3586,
      "Ġimagined": 3587,
      "Ġhandle": 3588,
      "Ġrece": 3589,
      "Ġenvelope": 3590,
      "Ġearth": 3591,
      "ĠDave": 3592,
      "Ġbent": 3593,
      "Ġsorts": 3594,
      "Ġavo": 3595,
      "io": 3596,
      "Ġscale": 3597,
      "Ġpale": 3598,
      "Ġpenny": 3599,
      "Ġtorn": 3600,
      "Ġahead": 3601,
      "Ġfork": 3602,
      "ince": 3603,
      "Ġcrane": 3604,
      "awn": 3605,
      "Ġturkey": 3606,
      "Ġbadly": 3607,
      "Ġscreen": 3608,
      "Ġpretending": 3609,
      "Ġjumps": 3610,
      "illie": 3611,
      "Ġreading": 3612,
      "Ġhumble": 3613,
      "Ġwire": 3614,
      "Ġplaced": 3615,
      "ÅĵLetÃ¢": 3616,
      "ĠHere": 3617,
      "ric": 3618,
      "Ġspring": 3619,
      "Ġspoke": 3620,
      "iches": 3621,
      "Ġharmless": 3622,
      "bled": 3623,
      "ĠcouldnÃ¢": 3624,
      "Ġpersistent": 3625,
      "Ġolder": 3626,
      "Ġshut": 3627,
      "Ġperm": 3628,
      "Ġcere": 3629,
      "Ġcounting": 3630,
      "Ġgrowing": 3631,
      "Ġtunnel": 3632,
      "Ġencou": 3633,
      "ĠLola": 3634,
      "Ġslides": 3635,
      "Ġliz": 3636,
      "Ġlibrary": 3637,
      "ctop": 3638,
      "While": 3639,
      "Ġbracelet": 3640,
      "Ġmush": 3641,
      "ĠGive": 3642,
      "ctopus": 3643,
      "Ġpiano": 3644,
      "ĠToby": 3645,
      "ud": 3646,
      "Ġflute": 3647,
      "Ġbeauty": 3648,
      "Ġcomplet": 3649,
      "Ġcryst": 3650,
      "Ġsuper": 3651,
      "Ġparade": 3652,
      "Ġmay": 3653,
      "ĠLook": 3654,
      "Ġcompl": 3655,
      "Ġnames": 3656,
      "cream": 3657,
      "ĠBear": 3658,
      "Ġsofa": 3659,
      "comfort": 3660,
      "Ġscatter": 3661,
      "Ġtriang": 3662,
      "Ġcrawl": 3663,
      "Ġanx": 3664,
      "Yay": 3665,
      "Ġbutterflies": 3666,
      "Ġtrap": 3667,
      "Ġcelebrate": 3668,
      "Ġcarp": 3669,
      "Ġoctopus": 3670,
      "Ġtrash": 3671,
      "Ġcomputer": 3672,
      "Ġjug": 3673,
      "ĠKim": 3674,
      "Ġpow": 3675,
      "ĠPe": 3676,
      "comfortable": 3677,
      "aid": 3678,
      "Ġtooth": 3679,
      "Ġuncomfortable": 3680,
      "Ġdestroy": 3681,
      "Ġintelligent": 3682,
      "Ġcards": 3683,
      "Ġtrick": 3684,
      "Ġanxious": 3685,
      "Ġobject": 3686,
      "Ġrefused": 3687,
      "ices": 3688,
      "Ġbeep": 3689,
      "Ġphot": 3690,
      "Ġcourage": 3691,
      "Ġvalue": 3692,
      "Ġcooking": 3693,
      "Ġhung": 3694,
      "ubby": 3695,
      "Ġsandwiches": 3696,
      "Ġgum": 3697,
      "Ġscoot": 3698,
      "Ġtrack": 3699,
      "Ġclub": 3700,
      "Ġletters": 3701,
      "Ġspeed": 3702,
      "Ġordinary": 3703,
      "Ġcharming": 3704,
      "oe": 3705,
      "uddy": 3706,
      "Alice": 3707,
      "Ġquestion": 3708,
      "Ġneat": 3709,
      "Ġbandage": 3710,
      "Ġtwirled": 3711,
      "aches": 3712,
      "ips": 3713,
      "ĠPat": 3714,
      "Ġblueber": 3715,
      "Ġuncle": 3716,
      "Ġcupboard": 3717,
      "Ġgifted": 3718,
      "Ġcereal": 3719,
      "Ġcamp": 3720,
      "enry": 3721,
      "orant": 3722,
      "Ġhunter": 3723,
      "Ġtask": 3724,
      "Ġmole": 3725,
      "Ġpigeon": 3726,
      "Ġanywhere": 3727,
      "Ġrules": 3728,
      "Ġsunflower": 3729,
      "Re": 3730,
      "Ġbase": 3731,
      "Ġchasing": 3732,
      "Ġsnuggled": 3733,
      "Ġnail": 3734,
      "gust": 3735,
      "Ġvi": 3736,
      "Ġcurt": 3737,
      "Ġcompetitive": 3738,
      "Ġgloomy": 3739,
      "Ġdrawer": 3740,
      "Ġsett": 3741,
      "Ġcurtain": 3742,
      "Ġcollar": 3743,
      "Ġuniver": 3744,
      "arlie": 3745,
      "Ġdisgust": 3746,
      "Ġmushroom": 3747,
      "Ġyawn": 3748,
      "Give": 3749,
      "Ġbicy": 3750,
      "Ġsend": 3751,
      "arian": 3752,
      "ceed": 3753,
      "Ġignorant": 3754,
      "Ġdeaf": 3755,
      "Ġattract": 3756,
      "Ġstation": 3757,
      "Ġlizard": 3758,
      "aby": 3759,
      "Ġcarpet": 3760,
      "Ġleash": 3761,
      "cut": 3762,
      "Ġflour": 3763,
      "used": 3764,
      "Ġbounced": 3765,
      "Ġstickers": 3766,
      "Ġpasta": 3767,
      "coa": 3768,
      "Ġlively": 3769,
      "Ġsoldier": 3770,
      "Ġchance": 3771,
      "Ġtire": 3772,
      "Ġcompassionate": 3773,
      "aff": 3774,
      "Ġstarts": 3775,
      "Ġalert": 3776,
      "Ġhurry": 3777,
      "Ġled": 3778,
      "Ġpony": 3779,
      "Ġchubby": 3780,
      "Ġcartoon": 3781,
      "ses": 3782,
      "stri": 3783,
      "Ġsupport": 3784,
      "Ġdug": 3785,
      "erable": 3786,
      "ĠSm": 3787,
      "Ġpressed": 3788,
      "Ġpackage": 3789,
      "Ġwishes": 3790,
      "cu": 3791,
      "Ġcreatures": 3792,
      "Ġhelpless": 3793,
      "Ġmiserable": 3794,
      "Ġshine": 3795,
      "ĠMandy": 3796,
      "Ġjet": 3797,
      "ĠEventually": 3798,
      "tter": 3799,
      "urb": 3800,
      "Ġhook": 3801,
      "Ġthief": 3802,
      "Ġstretched": 3803,
      "Ġhipp": 3804,
      "Ġgir": 3805,
      "Ġshaking": 3806,
      "Ġresist": 3807,
      "Ġtap": 3808,
      "ummer": 3809,
      "Ġitself": 3810,
      "Ġhelmet": 3811,
      "Ġsquash": 3812,
      "ÅĵThat": 3813,
      "iest": 3814,
      "Ġdisturb": 3815,
      "heart": 3816,
      "Ġpants": 3817,
      "Ġgor": 3818,
      "Ġtray": 3819,
      "Ġcocoa": 3820,
      "Ġener": 3821,
      "ĠPolly": 3822,
      "Ġneedle": 3823,
      "Ġpoem": 3824,
      "Ġimpat": 3825,
      "gie": 3826,
      "Ġshouts": 3827,
      "Ġfearful": 3828,
      "Ġpepper": 3829,
      "Ġcricket": 3830,
      "Ġcase": 3831,
      "ĠAl": 3832,
      "noon": 3833,
      "Ġten": 3834,
      "Ġafternoon": 3835,
      "Daisy": 3836,
      "ĠSh": 3837,
      "ĠAre": 3838,
      "Ġsucceed": 3839,
      "Ġrepe": 3840,
      "Ġmill": 3841,
      "Ġbrighter": 3842,
      "Ġallig": 3843,
      "Ġbet": 3844,
      "Ġleop": 3845,
      "If": 3846,
      "Ġenvious": 3847,
      "Ġribb": 3848,
      "ĠBill": 3849,
      "Ġtemp": 3850,
      "aurant": 3851,
      "Ġimpatient": 3852,
      "Ġwaff": 3853,
      "orable": 3854,
      "Ġnobody": 3855,
      "Ġdisgusting": 3856,
      "Ġrestaurant": 3857,
      "Ġcomet": 3858,
      "Ġmath": 3859,
      "Ġpracticed": 3860,
      "Ġcrystal": 3861,
      "aked": 3862,
      "Ġrice": 3863,
      "Ġcube": 3864,
      "Ġsteps": 3865,
      "Ġfurther": 3866,
      "Ġotter": 3867,
      "Ġsandbox": 3868,
      "Ġscrew": 3869,
      "ĠGeorge": 3870,
      "Ġtrump": 3871,
      "Ġsomewhere": 3872,
      "Ġcandle": 3873,
      "Ġattractive": 3874,
      "ĠWhere": 3875,
      "Ġmonkeys": 3876,
      "Ġpun": 3877,
      "Ġpurse": 3878,
      "olin": 3879,
      "Bye": 3880,
      "Ġvide": 3881,
      "Ġjeep": 3882,
      "Ġbackpack": 3883,
      "Ġhuman": 3884,
      "Ġmeas": 3885,
      "Ġskip": 3886,
      "Ġanyway": 3887,
      "Ġfireman": 3888,
      "Ġadorable": 3889,
      "Ġrestless": 3890,
      "Ġstretch": 3891,
      "icop": 3892,
      "icopter": 3893,
      "Ġmug": 3894,
      "Ġfilthy": 3895,
      "Ġdess": 3896,
      "strich": 3897,
      "Ġfu": 3898,
      "aroo": 3899,
      "angaroo": 3900,
      "Ġdecorate": 3901,
      "Ġbri": 3902,
      "stic": 3903,
      "Ġrespectful": 3904,
      "Ġtroubled": 3905,
      "Ġgiggle": 3906,
      "ĠCl": 3907,
      "gn": 3908,
      "Benny": 3909,
      "Ġattic": 3910,
      "Ġhelicopter": 3911,
      "Ġmuff": 3912,
      "Ġpand": 3913,
      "Ġmelon": 3914,
      "Ġthread": 3915,
      "Ġnowhere": 3916,
      "Ġraven": 3917,
      "Ġstirred": 3918,
      "Ġsoar": 3919,
      "Ġenthusia": 3920,
      "Ġfle": 3921,
      "lcano": 3922,
      "Ġenthusiastic": 3923,
      "Ġgrabs": 3924,
      "Ġimpro": 3925,
      "Ġgorilla": 3926,
      "Ġleopard": 3927,
      "Ġfinds": 3928,
      "Ġbarking": 3929,
      "Ġcooked": 3930,
      "Ġexplain": 3931,
      "Ġmagnet": 3932,
      "Ġbicycle": 3933,
      "Ġtrumpet": 3934,
      "Ġkangaroo": 3935,
      "Ġnuts": 3936,
      "shed": 3937,
      "Ġquar": 3938,
      "Ġhippo": 3939,
      "ĠLee": 3940,
      "Ġshoe": 3941,
      "Ġlistening": 3942,
      "Ġcats": 3943,
      "Ġsummer": 3944,
      "Ġdistant": 3945,
      "Ġfive": 3946,
      "Ġbarrel": 3947,
      "irit": 3948,
      "stairs": 3949,
      "gging": 3950,
      "ĠWh": 3951,
      "Ġspell": 3952,
      "Ġreco": 3953,
      "Ġexper": 3954,
      "night": 3955,
      "Ġstared": 3956,
      "Ġadmire": 3957,
      "Ġpipe": 3958,
      "Little": 3959,
      "Ġunpack": 3960,
      "Ġvolcano": 3961,
      "Ġants": 3962,
      "Ġjellyfish": 3963,
      "Ġhappier": 3964,
      "Ġsent": 3965,
      "Ġalligator": 3966,
      "Ġfort": 3967,
      "Ġorganize": 3968,
      "Ġharsh": 3969,
      "Ġur": 3970,
      "uct": 3971,
      "Ġquite": 3972,
      "ĠEverything": 3973,
      "come": 3974,
      "Ġsplit": 3975,
      "Ġsecond": 3976,
      "Ġvine": 3977,
      "Ġsweetheart": 3978,
      "Ġpaws": 3979,
      "ĠWould": 3980,
      "Ġradio": 3981,
      "Everyone": 3982,
      "cycle": 3983,
      "Ġriding": 3984,
      "Ġpulls": 3985,
      "Ġgiven": 3986,
      "Ġbatht": 3987,
      "ophone": 3988,
      "Ġseal": 3989,
      "ĠdidnÃ¢": 3990,
      "Ġfirework": 3991,
      "Ġscooter": 3992,
      "Ġbreat": 3993,
      "par": 3994,
      "erop": 3995,
      "eropl": 3996,
      "Ġpal": 3997,
      "Ġbathtub": 3998,
      "Ġmodest": 3999,
      "apa": 4000,
      "Ġhall": 4001,
      "Ġtripped": 4002,
      "Ġaeropl": 4003,
      "Ġmessage": 4004,
      "Ġchalk": 4005,
      "Ġlid": 4006,
      "Ġsepar": 4007,
      "Ġbikes": 4008,
      "Ġcows": 4009,
      "Ġsle": 4010,
      "Ġpushing": 4011,
      "Ġspeak": 4012,
      "Ġfrowned": 4013,
      "Ġmama": 4014,
      "llie": 4015,
      "Ġostrich": 4016,
      "Ġsort": 4017,
      "ĠJoey": 4018,
      "Ġsailor": 4019,
      "Ġshield": 4020,
      "Ġsweater": 4021,
      "Ġpaid": 4022,
      "Ġeras": 4023,
      "Ġrepair": 4024,
      "ccol": 4025,
      "Ġsock": 4026,
      "Ġbin": 4027,
      "ĠBrownie": 4028,
      "Ġdessert": 4029,
      "Ġmeat": 4030,
      "Ġsalt": 4031,
      "year": 4032,
      "Ġhaircut": 4033,
      "Ġobser": 4034,
      "Ġsize": 4035,
      "ccoli": 4036,
      "aggie": 4037,
      "hood": 4038,
      "eer": 4039,
      "Ġrescue": 4040,
      "Ġspirit": 4041,
      "Ġeither": 4042,
      "ucked": 4043,
      "ĠTweetie": 4044,
      "Ġpilot": 4045,
      "Ġviolin": 4046,
      "ĠJerry": 4047,
      "Ġholes": 4048,
      "Ġgrapes": 4049,
      "Ġscold": 4050,
      "Ġlightning": 4051,
      "Ġtriangle": 4052,
      "ĠSmith": 4053,
      "Ġbelt": 4054,
      "Ġsheet": 4055,
      "Ġbehave": 4056,
      "Ġbuzz": 4057,
      "ĠAlex": 4058,
      "Ġroared": 4059,
      "Ġdishes": 4060,
      "Ġpalace": 4061,
      "rec": 4062,
      "Ġcountry": 4063,
      "Ġcostume": 4064,
      "Ġpushes": 4065,
      "Ġelev": 4066,
      "Grandma": 4067,
      "Ġlions": 4068,
      "Ġforgave": 4069,
      "Ġswitch": 4070,
      "Ġstarting": 4071,
      "Ġpapers": 4072,
      "Ġluck": 4073,
      "Ġcush": 4074,
      "Ġchain": 4075,
      "astic": 4076,
      "Ġped": 4077,
      "Ġraft": 4078,
      "Ġsticker": 4079,
      "Ġswinging": 4080,
      "Ġloop": 4081,
      "Ġpeek": 4082,
      "Ġshakes": 4083,
      "Ġrecogn": 4084,
      "Ġbears": 4085,
      "bul": 4086,
      "Ġshade": 4087,
      "Ġtrains": 4088,
      "ÅĵYou": 4089,
      "Ġelevator": 4090,
      "Ġhive": 4091,
      "Ġshopkeeper": 4092,
      "Ġmicr": 4093,
      "Ġchecked": 4094,
      "Ġsaus": 4095,
      "Ġbasketball": 4096,
      "Ġtax": 4097,
      "Ġsilver": 4098,
      "Ġbroccoli": 4099,
      "Ġjokes": 4100,
      "happy": 4101,
      "ipping": 4102,
      "Ġalive": 4103,
      "Ġrod": 4104,
      "Ġoy": 4105,
      "reci": 4106,
      "Ġlip": 4107,
      "icer": 4108,
      "Ġprov": 4109,
      "ffe": 4110,
      "Ġlear": 4111,
      "Ġfalling": 4112,
      "Ġlearnt": 4113,
      "Ġwheat": 4114,
      "Ġenergy": 4115,
      "ube": 4116,
      "Ġappreci": 4117,
      "Ġsoftly": 4118,
      "ffee": 4119,
      "aled": 4120,
      "Ġpole": 4121,
      "Ġevening": 4122,
      "Ġmicrophone": 4123,
      "Ġwallet": 4124,
      "Ġneighbour": 4125,
      "Ġinse": 4126,
      "Ġpor": 4127,
      "Ġjudge": 4128,
      "Ġcact": 4129,
      "Ġplanet": 4130,
      "iskers": 4131,
      "Ġcolours": 4132,
      "Ġpenguin": 4133,
      "Ġbarks": 4134,
      "Ġvisited": 4135,
      "Ġended": 4136,
      "Ġreind": 4137,
      "iling": 4138,
      "Ġknot": 4139,
      "Ġclapping": 4140,
      "ĠOr": 4141,
      "cast": 4142,
      "inking": 4143,
      "Ġhedge": 4144,
      "Ġzoomed": 4145,
      "Ġrubber": 4146,
      "edy": 4147,
      "Ġoat": 4148,
      "Ġmarched": 4149,
      "Ġboots": 4150,
      "Ġunhappy": 4151,
      "Ġjournal": 4152,
      "Ġeraser": 4153,
      "play": 4154,
      "Ġmild": 4155,
      "Ġol": 4156,
      "ense": 4157,
      "Ġavoc": 4158,
      "Daddy": 4159,
      "Ġshovel": 4160,
      "Ġtaxi": 4161,
      "Ġgro": 4162,
      "Ġsandcast": 4163,
      "Ġpad": 4164,
      "ooped": 4165,
      "Ġlaund": 4166,
      "ophy": 4167,
      "ĠSnow": 4168,
      "Ġtube": 4169,
      "Ġcardboard": 4170,
      "imi": 4171,
      "Ġlaundry": 4172,
      "ĠSophie": 4173,
      "Ġart": 4174,
      "Ġavail": 4175,
      "elery": 4176,
      "Ġbur": 4177,
      "seum": 4178,
      "aulif": 4179,
      "Ha": 4180,
      "Ġpanda": 4181,
      "aulifl": 4182,
      "Ġreindeer": 4183,
      "ebook": 4184,
      "Ġbelongs": 4185,
      "Ġambul": 4186,
      "Ġnotebook": 4187,
      "Ġwool": 4188,
      "Ġcord": 4189,
      "ĠRed": 4190,
      "Ġdrawings": 4191,
      "Ġcactus": 4192,
      "Ġsmells": 4193,
      "Ġsprink": 4194,
      "Ġtrophy": 4195,
      "Ġshelter": 4196,
      "Ġmule": 4197,
      "Ġfeelings": 4198,
      "Ġsteak": 4199,
      "Ġputting": 4200,
      "Ġclimbing": 4201,
      "Ġdisplay": 4202,
      "Ġpainter": 4203,
      "Jenny": 4204,
      "Ġrolling": 4205,
      "Ġunlock": 4206,
      "Ġmuseum": 4207,
      "Ġtricks": 4208,
      "Ġhadn": 4209,
      "Ġbreaks": 4210,
      "Ġmen": 4211,
      "ait": 4212,
      "Ġstrugg": 4213,
      "Ġbananas": 4214,
      "Ġavailable": 4215,
      "nger": 4216,
      "Ġraining": 4217,
      "Ġstrawberry": 4218,
      "Ġdive": 4219,
      "ges": 4220,
      "Ġstom": 4221,
      "Ġsoil": 4222,
      "Ġflies": 4223,
      "ĠBuddy": 4224,
      "Ġbul": 4225,
      "Ġcoffee": 4226,
      "Ġhoping": 4227,
      "nam": 4228,
      "ĠTr": 4229,
      "ĠdonÃ¢": 4230,
      "Ġmarry": 4231,
      "Ġgoal": 4232,
      "Ġpair": 4233,
      "Ġambulance": 4234,
      "reeze": 4235,
      "Ġthanks": 4236,
      "azz": 4237,
      "Ġcaulifl": 4238,
      "Ġleaned": 4239,
      "Ġlend": 4240,
      "Ġframe": 4241,
      "iron": 4242,
      "Ġshort": 4243,
      "ron": 4244,
      "ĠPapa": 4245,
      "Ġinsist": 4246,
      "mand": 4247,
      "ĠBet": 4248,
      "Ġpolish": 4249,
      "Ġcups": 4250,
      "Ġquarrel": 4251,
      "Ġheads": 4252,
      "Ġtreasures": 4253,
      "Ġprun": 4254,
      "Ġcelery": 4255,
      "Ġskill": 4256,
      "ĠBunny": 4257,
      "Ġbulb": 4258,
      "Ġfields": 4259,
      "Ġincl": 4260,
      "Ġairport": 4261,
      "hino": 4262,
      "Ġapologized": 4263,
      "Ġonion": 4264,
      "sely": 4265,
      "Ġyach": 4266,
      "Ġink": 4267,
      "Ġfootball": 4268,
      "Ġfolder": 4269,
      "ecause": 4270,
      "eath": 4271,
      "ctory": 4272,
      "Ġdrops": 4273,
      "Ġdiary": 4274,
      "Ġflame": 4275,
      "ĠAndy": 4276,
      "Ġminute": 4277,
      "Ġaeroplane": 4278,
      "urch": 4279,
      "Ġfilm": 4280,
      "Ġrever": 4281,
      "Ġimagine": 4282,
      "Ġmedal": 4283,
      "Ġvest": 4284,
      "Ġlawy": 4285,
      "Ġkitty": 4286,
      "Ġgolf": 4287,
      "Ġappl": 4288,
      "Ġfactory": 4289,
      "Ġsym": 4290,
      "Ġshouldn": 4291,
      "ected": 4292,
      "ĠPaul": 4293,
      "Ġvend": 4294,
      "Ġeagerly": 4295,
      "pe": 4296,
      "Ġswung": 4297,
      "Ġshrimp": 4298,
      "Ġcauliflower": 4299,
      "Ġyogurt": 4300,
      "Ġmagaz": 4301,
      "Ġcomplete": 4302,
      "Ġtub": 4303,
      "Ġpage": 4304,
      "Ġrag": 4305,
      "ween": 4306,
      "Ġyacht": 4307,
      "Ġclosely": 4308,
      "âĤ¬âĢľ": 4309,
      "Ġporch": 4310,
      "nament": 4311,
      "kelet": 4312,
      "Ġhotel": 4313,
      "Ġbetween": 4314,
      "Ġpoints": 4315,
      "place": 4316,
      "Ġrhino": 4317,
      "Ġornament": 4318,
      "Ġflea": 4319,
      "Ġquit": 4320,
      "Ġdisag": 4321,
      "Ġshouting": 4322,
      "..": 4323,
      "Ġwinter": 4324,
      "Ġstuffed": 4325,
      "Ġcheek": 4326,
      "stead": 4327,
      "Ġpit": 4328,
      "ef": 4329,
      "osie": 4330,
      "Ġchirp": 4331,
      "Ġcooler": 4332,
      "render": 4333,
      "Ġsunset": 4334,
      "Ġseeing": 4335,
      "gen": 4336,
      "Ġimagination": 4337,
      "Ġpoint": 4338,
      "izes": 4339,
      "Ġfrogs": 4340,
      "bol": 4341,
      "ĠWhiskers": 4342,
      "Ġinsect": 4343,
      "zzy": 4344,
      "Ġperfectly": 4345,
      "Ġthrows": 4346,
      "anic": 4347,
      "ĠSandy": 4348,
      "Ġforgotten": 4349,
      "Ġcounter": 4350,
      "Ġsymbol": 4351,
      "Ġlaser": 4352,
      "Ġherb": 4353,
      "Ch": 4354,
      "Ġtwink": 4355,
      "affe": 4356,
      "Ġknob": 4357,
      "ĠTed": 4358,
      "Ġlives": 4359,
      "chanic": 4360,
      "Ġheaded": 4361,
      "Ġcreated": 4362,
      "Ġfurn": 4363,
      "Ġskelet": 4364,
      "iture": 4365,
      "Ġattention": 4366,
      "aces": 4367,
      "Ġfurniture": 4368,
      "Ġtuna": 4369,
      "quit": 4370,
      "Ġtemple": 4371,
      "ides": 4372,
      "Ġmechanic": 4373,
      "Ġax": 4374,
      "Ġlie": 4375,
      "Ġtrail": 4376,
      "Ġmixer": 4377,
      "ccer": 4378,
      "Ġsir": 4379,
      "Ġphoto": 4380,
      "Ġvendor": 4381,
      "Ġwife": 4382,
      "Ġmotorcycle": 4383,
      "Ġbaking": 4384,
      "Ġstud": 4385,
      "ites": 4386,
      "Ġplayer": 4387,
      "Ġslept": 4388,
      "Ġoffer": 4389,
      "ĠAnnie": 4390,
      "gl": 4391,
      "Ġcoal": 4392,
      "ĠRo": 4393,
      "Ġkay": 4394,
      "Ġpoke": 4395,
      "Ġsoccer": 4396,
      "ĠWill": 4397,
      "Ġpetals": 4398,
      "Ġtheater": 4399,
      "quito": 4400,
      "aws": 4401,
      "Ġpeach": 4402,
      "Ġargue": 4403,
      "Ġhut": 4404,
      "spap": 4405,
      "Ġpirates": 4406,
      "Ġmos": 4407,
      "Ġlawyer": 4408,
      "Ġwaving": 4409,
      "ĠBun": 4410,
      "Ġswamp": 4411,
      "Ġgiraffe": 4412,
      "Ġnewspap": 4413,
      "Ġskull": 4414,
      "right": 4415,
      "Your": 4416,
      "Ġfireplace": 4417,
      "Ġvet": 4418,
      "ories": 4419,
      "Ġweather": 4420,
      "Inside": 4421,
      "Ġpine": 4422,
      "ckey": 4423,
      "Ġhockey": 4424,
      "Ġoil": 4425,
      "Ġig": 4426,
      "Ġcherries": 4427,
      "any": 4428,
      "Ġigloo": 4429,
      "orses": 4430,
      "Ġskeleton": 4431,
      "ues": 4432,
      "Ġitch": 4433,
      "Ġblowing": 4434,
      "Ġzipper": 4435,
      "Ġwipe": 4436,
      "ĠCharlie": 4437,
      "Ġaxe": 4438,
      "Ġglove": 4439,
      "ĠGrace": 4440,
      "Ġhorses": 4441,
      "Ġmosquito": 4442,
      "Ġcalls": 4443,
      "Ġgrin": 4444,
      "Ġcushion": 4445,
      "Ġfreez": 4446,
      "ĠMaria": 4447,
      "Ġvideo": 4448,
      "Ġchurch": 4449,
      "Ġreef": 4450,
      "Ġglowing": 4451,
      "Eventually": 4452,
      "Ġmaze": 4453,
      "Ġgrocer": 4454,
      "Ġbreeze": 4455,
      "Ġwelcomed": 4456,
      "Ġtrave": 4457,
      "Ġcable": 4458,
      "glass": 4459,
      "ceros": 4460,
      "Ġgolden": 4461,
      "Ġshower": 4462,
      "Ġmeeting": 4463,
      "Ġslipper": 4464,
      "angu": 4465,
      "Ġbouncing": 4466,
      "Ġchickens": 4467,
      "Ġcelebrated": 4468,
      "Ġsneak": 4469,
      "Ġsurrender": 4470,
      "Ġlime": 4471,
      "Ġplastic": 4472,
      "Ġslippery": 4473,
      "unately": 4474,
      "Ġsquirrels": 4475,
      "Ġfishing": 4476,
      "Ġtut": 4477,
      "elcome": 4478,
      "Ġpopped": 4479,
      "Ġlangu": 4480,
      "Ġsunglass": 4481,
      "Ġsunglasses": 4482,
      "Ġgreedy": 4483,
      "hero": 4484,
      "ĠBaby": 4485,
      "ney": 4486,
      "was": 4487,
      "Ġseas": 4488,
      "Ġsniffed": 4489,
      "Ġlotion": 4490,
      "Ġkingdom": 4491,
      "Ġpowder": 4492,
      "Ġstreng": 4493,
      "Ġflapped": 4494,
      "Ġcomplain": 4495,
      "mm": 4496,
      "Ġwags": 4497,
      "Ġoyster": 4498,
      "rr": 4499,
      "ĠMillie": 4500,
      "Ġhanging": 4501,
      "Ġfisher": 4502,
      "Ġparent": 4503,
      "Ġdoors": 4504,
      "Ġrhinoceros": 4505,
      "ĠitÃ¢": 4506,
      "Ġshoulder": 4507,
      "Ġsuperhero": 4508,
      "Ġpist": 4509,
      "Ġrot": 4510,
      "Ġbury": 4511,
      "washer": 4512,
      "rod": 4513,
      "Ġdear": 4514,
      "Ġsub": 4515,
      "Ġyoga": 4516,
      "Ġstaff": 4517,
      "Ġbaseball": 4518,
      "Ġstrength": 4519,
      "Ġfauc": 4520,
      "Ġbattery": 4521,
      "vision": 4522,
      "Ġcabinet": 4523,
      "Ġsurround": 4524,
      "Ġsince": 4525,
      "Ġpistol": 4526,
      "Ġunif": 4527,
      "Ġinvest": 4528,
      "ĠGod": 4529,
      "Ġdishwasher": 4530,
      "ĠUn": 4531,
      "Ġintrod": 4532,
      "Ġmystery": 4533,
      "chor": 4534,
      "Ġiron": 4535,
      "case": 4536,
      "Ġuniform": 4537,
      "Ġceiling": 4538,
      "ĠIÃ¢": 4539,
      "Ġsque": 4540,
      "Ġinvestig": 4541,
      "rosc": 4542,
      "Ġhopes": 4543,
      "Ġmusician": 4544,
      "Ġsticky": 4545,
      "ab": 4546,
      "Ġeaten": 4547,
      "Ġmemories": 4548,
      "Ġfaucet": 4549,
      "ĠJess": 4550,
      "inarian": 4551,
      "ĠInstead": 4552,
      "eterinarian": 4553,
      "Ġfought": 4554,
      "te": 4555,
      "Ġkayak": 4556,
      "ĠLilly": 4557,
      "Ġreve": 4558,
      "Ġvroom": 4559,
      "Ġveterinarian": 4560,
      "ssible": 4561,
      "Ġchess": 4562,
      "Ġtoil": 4563,
      "Ġagree": 4564,
      "roscope": 4565,
      "Ġnovel": 4566,
      "Ġsailing": 4567,
      "ĠHenry": 4568,
      "tress": 4569,
      "men": 4570,
      "una": 4571,
      "Ġmattress": 4572,
      "Ġmistakes": 4573,
      "Ġignored": 4574,
      "ĠMimi": 4575,
      "Ġnews": 4576,
      "Ġburned": 4577,
      "Ġtelevision": 4578,
      "Ġble": 4579,
      "medi": 4580,
      "Next": 4581,
      "Sammy": 4582,
      "Ġfollows": 4583,
      "Ġcell": 4584,
      "alley": 4585,
      "Ġcob": 4586,
      "Ġquack": 4587,
      "Emma": 4588,
      "Wait": 4589,
      "Ġshrugged": 4590,
      "Today": 4591,
      "Ġjewelry": 4592,
      "mediately": 4593,
      "Ġmicroscope": 4594,
      "Ġtoilet": 4595,
      "Ġmop": 4596,
      "Ġsprayed": 4597,
      "ison": 4598,
      "tain": 4599,
      "Ġblankets": 4600,
      "Ġhappens": 4601,
      "Ġwriting": 4602,
      "Ġdiscu": 4603,
      "Ġweigh": 4604,
      "Ġdancer": 4605,
      "Ġnapkin": 4606,
      "Ġquietly": 4607,
      "Ġanchor": 4608,
      "Ġclassroom": 4609,
      "aud": 4610,
      "Ġmoves": 4611,
      "Ġradish": 4612,
      "Ġavocado": 4613,
      "Ġinvestigate": 4614,
      "Ġsuff": 4615,
      "Ġvalley": 4616,
      "Ġregret": 4617,
      "Ġprevent": 4618,
      "Ġcollected": 4619,
      "Together": 4620,
      "Ġagre": 4621,
      "Ġworth": 4622,
      "web": 4623,
      "Ġalarm": 4624,
      "Thanks": 4625,
      "Ġthrowing": 4626,
      "Ġbother": 4627,
      "Ġhar": 4628,
      "Ġmagazine": 4629,
      "Ann": 4630,
      "Ġscolded": 4631,
      "ives": 4632,
      "ler": 4633,
      "inked": 4634,
      "Ġcared": 4635,
      "chie": 4636,
      "Ġchoice": 4637,
      "reek": 4638,
      "Ġtear": 4639,
      "house": 4640,
      "chair": 4641,
      "Ġcreek": 4642,
      "Ġskirt": 4643,
      "Ġoak": 4644,
      "Ġcane": 4645,
      "rs": 4646,
      "Ġbeef": 4647,
      "Ġfisherman": 4648,
      "ÅĵItÃ¢": 4649,
      "Ġattach": 4650,
      "Ġpassport": 4651,
      "erc": 4652,
      "anny": 4653,
      "Ġgym": 4654,
      "Ġcastles": 4655,
      "Ġcobweb": 4656,
      "Ġtug": 4657,
      "Ġapart": 4658,
      "Ġyield": 4659,
      "Ġapplaud": 4660,
      "Ġtutor": 4661,
      "ĠRosie": 4662,
      "ĠNext": 4663,
      "Ġward": 4664,
      "Ġpresents": 4665,
      "Ġaccepted": 4666,
      "anges": 4667,
      "Ġseparate": 4668,
      "Ġsizes": 4669,
      "Ġnewspaper": 4670,
      "ĠDanny": 4671,
      "Ġwardrobe": 4672,
      "Ġlicks": 4673,
      "Ġmatches": 4674,
      "Ġpuddles": 4675,
      "Ġcrib": 4676,
      "Ġarmchair": 4677,
      "Qu": 4678,
      "Ġrise": 4679,
      "Ġstraight": 4680,
      "Ġentered": 4681,
      "Ġbookcase": 4682,
      "Ġtrusted": 4683,
      "Ġpra": 4684,
      "imney": 4685,
      "Ġdelay": 4686,
      "ĠTony": 4687,
      "Ġtucked": 4688,
      "Ġcaring": 4689,
      "Ġcandles": 4690,
      "Ġgrill": 4691,
      "Ġwhisper": 4692,
      "ety": 4693,
      "Because": 4694,
      "Ġfog": 4695,
      "Ġkeeping": 4696,
      "Ġveil": 4697,
      "Ġpur": 4698,
      "ĠKate": 4699,
      "Ġrooms": 4700,
      "Ġperfu": 4701,
      "Ġkisses": 4702,
      "Ġcrow": 4703,
      "Ġimprove": 4704,
      "Ġchimney": 4705,
      "Ġcoats": 4706,
      "Ġexerc": 4707,
      "ĠHarry": 4708,
      "Ġclaws": 4709,
      "Ġdressed": 4710,
      "ĠSee": 4711,
      "Ġlawn": 4712,
      "ampoo": 4713,
      "Ġraz": 4714,
      "Ġboot": 4715,
      "Ġblood": 4716,
      "Ġfloat": 4717,
      "Ġfreezer": 4718,
      "Ġdisappear": 4719,
      "Ġpastry": 4720,
      "iday": 4721,
      "Ġworms": 4722,
      "Ġpuzzles": 4723,
      "ah": 4724,
      "hic": 4725,
      "sit": 4726,
      "ĠHelp": 4727,
      "Ġletting": 4728,
      "eve": 4729,
      "Ġstro": 4730,
      "Ġvehic": 4731,
      "ring": 4732,
      "omes": 4733,
      "Ġstable": 4734,
      "ggy": 4735,
      "Ġamazement": 4736,
      "iction": 4737,
      "Ġsplashing": 4738,
      "Ġblinked": 4739,
      "ival": 4740,
      "Ġchairs": 4741,
      "Ġperfume": 4742,
      "Ġblouse": 4743,
      "Ġsteam": 4744,
      "ictionary": 4745,
      "Ġroot": 4746,
      "Ġpinch": 4747,
      "mend": 4748,
      "Ġfile": 4749,
      "Ġshampoo": 4750,
      "ĠAb": 4751,
      "Ġappro": 4752,
      "Ġaut": 4753,
      "Ġwarmth": 4754,
      "ĠMiss": 4755,
      "Ġinf": 4756,
      "Ġmakeup": 4757,
      "Ġopera": 4758,
      "Ġdemand": 4759,
      "ived": 4760,
      "Ġdictionary": 4761,
      "Ġsqueeze": 4762,
      "Ġsigh": 4763,
      "Ġcrawling": 4764,
      "Ġrake": 4765,
      "Ġeasily": 4766,
      "Ġlanguage": 4767,
      "Ġwaste": 4768,
      "Ġsqueezed": 4769,
      "raged": 4770,
      "Ġmint": 4771,
      "Ġwigg": 4772,
      "Ġcrossed": 4773,
      "Ġmustache": 4774,
      "ĠSu": 4775,
      "ction": 4776,
      "Ġrazor": 4777,
      "Ġserve": 4778,
      "ommend": 4779,
      "Ġcub": 4780,
      "Ġrecommend": 4781,
      "Ġincre": 4782,
      "Ġribbon": 4783,
      "ĊĠ": 4784,
      "Ġpear": 4785,
      "Did": 4786,
      "ores": 4787,
      "Ġhol": 4788,
      "Ġrelaxed": 4789,
      "ĠJul": 4790,
      "âĤ¬.": 4791,
      "Ġticket": 4792,
      "Ġsnap": 4793,
      "Ġholiday": 4794,
      "Ġwandered": 4795,
      "uckily": 4796,
      "ĠRu": 4797,
      "Ġhearts": 4798,
      "Ġmissile": 4799,
      "cage": 4800,
      "Ġweep": 4801,
      "Ġspear": 4802,
      "Ġteleph": 4803,
      "Mandy": 4804,
      "Ġringing": 4805,
      "Ġblueberries": 4806,
      "Ġinstr": 4807,
      "Ġhurting": 4808,
      "Ġminer": 4809,
      "Ġrail": 4810,
      "Ġbirdcage": 4811,
      "Is": 4812,
      "Ġpoked": 4813,
      "Ġbelow": 4814,
      "Ġtelephone": 4815,
      "Ġrequ": 4816,
      "ĠRe": 4817,
      "lend": 4818,
      "fortunately": 4819,
      "Ġcrash": 4820,
      "Ġfest": 4821,
      "Ġgear": 4822,
      "Ġhelper": 4823,
      "asis": 4824,
      "Ġsurprises": 4825,
      "Ġfollowing": 4826,
      "Ġplanes": 4827,
      "Ġsubway": 4828,
      "Ġgrowled": 4829,
      "Ġjunk": 4830,
      "Ġmuffin": 4831,
      "bbie": 4832,
      "Ġkneel": 4833,
      "ĠWho": 4834,
      "ib": 4835,
      "cus": 4836,
      "Ġquiz": 4837,
      "Ġtornado": 4838,
      "Ġyucky": 4839,
      "Ġsneeze": 4840,
      "Ġideas": 4841,
      "Ġrefre": 4842,
      "Ġisn": 4843,
      "ising": 4844,
      "Ġtrade": 4845,
      "Ġmarried": 4846,
      "ups": 4847,
      "Ġlumber": 4848,
      "Ġdire": 4849,
      "Ġharb": 4850,
      "Ġreaches": 4851,
      "Ġsandcastle": 4852,
      "Ġbegged": 4853,
      "inky": 4854,
      "Ġstrawberries": 4855,
      "Ġmyself": 4856,
      "Ġbill": 4857,
      "Ġoasis": 4858,
      "Ġflutter": 4859,
      "Will": 4860,
      "amber": 4861,
      "Ġshrink": 4862,
      "Ġlaught": 4863,
      "Ġberry": 4864,
      "Ġburied": 4865,
      "icing": 4866,
      "Ġbravely": 4867,
      "Ġfallen": 4868,
      "Ġenter": 4869,
      "Ġplates": 4870,
      "Ġlaughter": 4871,
      "Ġbookshe": 4872,
      "Ġimmediately": 4873,
      "Ġcalend": 4874,
      "Ġbumped": 4875,
      "Ġbeamed": 4876,
      "omeday": 4877,
      "achel": 4878,
      "omob": 4879,
      "Ġraise": 4880,
      "Ġrequest": 4881,
      "Yuck": 4882,
      "Ġweap": 4883,
      "Ġexperience": 4884,
      "Ġlic": 4885,
      "Ġadmir": 4886,
      "Ġrabbits": 4887,
      "Ġinvite": 4888,
      "Ok": 4889,
      "ops": 4890,
      "Ġtong": 4891,
      "ĠJames": 4892,
      "Ġalright": 4893,
      "aped": 4894,
      "Ġmass": 4895,
      "'ve": 4896,
      "Ġunderstanding": 4897,
      "Ġcalendar": 4898,
      "Ġmoments": 4899,
      "atie": 4900,
      "Ġskills": 4901,
      "Ġautomob": 4902,
      "Ġjail": 4903,
      "Ġreverse": 4904,
      "Ġthumb": 4905,
      "Ġbleed": 4906,
      "htray": 4907,
      "ĠTrue": 4908,
      "Ġcliff": 4909,
      "Ġharbor": 4910,
      "Ġbookshelf": 4911,
      "Ġashtray": 4912,
      "sters": 4913,
      "Ġknown": 4914,
      "ĠClara": 4915,
      "igail": 4916,
      "oral": 4917,
      "Ġvac": 4918,
      "Ġfuel": 4919,
      "Ġpages": 4920,
      "ari": 4921,
      "Ġignore": 4922,
      "Ġitem": 4923,
      "Ġsupply": 4924,
      "ission": 4925,
      "Ġbathe": 4926,
      "Lisa": 4927,
      "Ġdried": 4928,
      "Ġsnapped": 4929,
      "Ġapron": 4930,
      "riger": 4931,
      "Ġsafety": 4932,
      "rigerator": 4933,
      "lier": 4934,
      "Welcome": 4935,
      "Ġpermission": 4936,
      "Ġhardly": 4937,
      "Ġrefrigerator": 4938,
      "Ġfestival": 4939,
      "With": 4940,
      "Ġspots": 4941,
      "ĠSnowy": 4942,
      "Ġcaptain": 4943,
      "ucture": 4944,
      "Ġremove": 4945,
      "Ġsomeday": 4946,
      "Ġstructure": 4947,
      "Ġsparkling": 4948,
      "Ġsocks": 4949,
      "Ġcuddled": 4950,
      "Ġsaving": 4951,
      "asp": 4952,
      "Ġbalan": 4953,
      "Ġblackboard": 4954,
      "'.": 4955,
      "Ġwhip": 4956,
      "cakes": 4957,
      "Ġchamber": 4958,
      "ĠFo": 4959,
      "Ġwine": 4960,
      "Ġdestination": 4961,
      "Ġtoes": 4962,
      "Ġspending": 4963,
      "Ġlemonade": 4964,
      "Ġres": 4965,
      "Ġspade": 4966,
      "Ġdresses": 4967,
      "Ġhits": 4968,
      "ÅĵNo": 4969,
      "Ġhanger": 4970,
      "Ġinsisted": 4971,
      "Ġteaching": 4972,
      "Ġbreathe": 4973,
      "Ġscattered": 4974,
      "ents": 4975,
      "Ġwaffle": 4976,
      "ĠIts": 4977,
      "Ġsettled": 4978,
      "ĠKing": 4979,
      "Ġdestroyed": 4980,
      "Ġairpl": 4981,
      "Ġlabel": 4982,
      "Ġbuzzing": 4983,
      "Ġpraised": 4984,
      "Ġjewels": 4985,
      "Ġprepare": 4986,
      "Ġyawned": 4987,
      "Ġlicense": 4988,
      "Ġtaller": 4989,
      "Ġmodel": 4990,
      "Ġfiref": 4991,
      "Ġport": 4992,
      "Ġscooped": 4993,
      "Ġdifferen": 4994,
      "Ġreceived": 4995,
      "Ġlily": 4996,
      "Ġrow": 4997,
      "Ġpride": 4998,
      "Ġprop": 4999,
      "Ġbuckle": 5000,
      "Ġearlier": 5001,
      "Ġtour": 5002,
      "ĠHave": 5003,
      "ĠMaggie": 5004,
      "Ġhomes": 5005,
      "Ġbeans": 5006,
      "ium": 5007,
      "Ġvanished": 5008,
      "Ġglo": 5009,
      "reat": 5010,
      "Ġpatiently": 5011,
      "ĠFreddy": 5012,
      "ctly": 5013,
      "Ġremain": 5014,
      "Ġbathrobe": 5015,
      "Ġappreciate": 5016,
      "Ġchirping": 5017,
      "Ġachie": 5018,
      "Ġdeeper": 5019,
      "Ġpulling": 5020,
      "Ġnone": 5021,
      "Ġsausage": 5022,
      "antly": 5023,
      "Ġsits": 5024,
      "Ġdare": 5025,
      "anna": 5026,
      "Ġdecorations": 5027,
      "Ġdrain": 5028,
      "Ġhate": 5029,
      "Ġshed": 5030,
      "Ġrhy": 5031,
      "Ġpunish": 5032,
      "Ġwashing": 5033,
      "ĠEach": 5034,
      "ĠPeople": 5035,
      "Ġfastest": 5036,
      "Ġsimp": 5037,
      "Ġsparkles": 5038,
      "Ġbelieved": 5039,
      "Ġtore": 5040,
      "Ġencouraged": 5041,
      "Ġreplace": 5042,
      "ĠBefore": 5043,
      "Ġsuffer": 5044,
      "xture": 5045,
      "Ġsparkle": 5046,
      "Ġbrain": 5047,
      "atch": 5048,
      "nies": 5049,
      "ĠTina": 5050,
      "Ġtease": 5051,
      "Ġclimbs": 5052,
      "ĠIs": 5053,
      "Peter": 5054,
      "sing": 5055,
      "sity": 5056,
      "Ġinvit": 5057,
      "Ġtongue": 5058,
      "All": 5059,
      "Ġbang": 5060,
      "Ġpalm": 5061,
      "Ġhills": 5062,
      "Ġscratch": 5063,
      "Ġmention": 5064,
      "Emily": 5065,
      "Ġguy": 5066,
      "Ġfloated": 5067,
      "Ġhers": 5068,
      "Ġautomobile": 5069,
      "Ġplays": 5070,
      "ĠCo": 5071,
      "Ġrespons": 5072,
      "bey": 5073,
      "Ġweeks": 5074,
      "ĠMay": 5075,
      "Ġflav": 5076,
      "Ġcrunch": 5077,
      "Ġdigg": 5078,
      "Ġsty": 5079,
      "Ġinfant": 5080,
      "Ġheat": 5081,
      "Ġoranges": 5082,
      "osed": 5083,
      "Ġpanic": 5084,
      "Ġgifts": 5085,
      "Ġscore": 5086,
      "izard": 5087,
      "Ġsolved": 5088,
      "Ġdigging": 5089,
      "Ġworse": 5090,
      "Ġshot": 5091,
      "Ġupstairs": 5092,
      "Ġstad": 5093,
      "These": 5094,
      "Ġvacation": 5095,
      "Ġstadium": 5096,
      "Ġmeowed": 5097,
      "Ġstruggling": 5098,
      "Ġmitten": 5099,
      "Ġequ": 5100,
      "thm": 5101,
      "Ġtwisted": 5102,
      "Ġshooting": 5103,
      "Ġbak": 5104,
      "Ġchores": 5105,
      "ĠBuzz": 5106,
      "Ġexamine": 5107,
      "Ġfloating": 5108,
      "Ġsew": 5109,
      "Ġsneezed": 5110,
      "ĠV": 5111,
      "Ġpoison": 5112,
      "Ġhesit": 5113,
      "osity": 5114,
      "Jen": 5115,
      "Fl": 5116,
      "Ġthrilled": 5117,
      "ĠOllie": 5118,
      "fied": 5119,
      "allen": 5120,
      "Ġuniverse": 5121,
      "rm": 5122,
      "Ġawe": 5123,
      "Ġspaces": 5124,
      "Ġbites": 5125,
      "Ġvehicle": 5126,
      "Ġsport": 5127,
      "Ġcherry": 5128,
      "Ġsetting": 5129,
      "Ġprovide": 5130,
      "Ġwarning": 5131,
      "Ġparts": 5132,
      "Ġmall": 5133,
      "Ġchallen": 5134,
      "Ġnation": 5135,
      "Ġgrey": 5136,
      "ĠGood": 5137,
      "Mmm": 5138,
      "Ġrestore": 5139,
      "do": 5140,
      "xy": 5141,
      "Ġmeasured": 5142,
      "Ġtherm": 5143,
      "Ġgrinned": 5144,
      "Ġapproached": 5145,
      "Ġmassage": 5146,
      "ero": 5147,
      "ude": 5148,
      "Ġranch": 5149,
      "Ġrhythm": 5150,
      "ĠEveryday": 5151,
      "Ġcollection": 5152,
      "Ġrepeat": 5153,
      "Ġjazz": 5154,
      "Ġurge": 5155,
      "Ġweapon": 5156,
      "Ġevent": 5157,
      "Ġfut": 5158,
      "Ġbrings": 5159,
      "Ġwizard": 5160,
      "Ġremained": 5161,
      "Ġoper": 5162,
      "Ġneighborhood": 5163,
      "ls": 5164,
      "Ġfuture": 5165,
      "Ġstomach": 5166,
      "ging": 5167,
      "umble": 5168,
      "Ġthermomet": 5169,
      "Sh": 5170,
      "Ġdiscuss": 5171,
      "Ġlugg": 5172,
      "Ġbillboard": 5173,
      "Ġmemory": 5174,
      "emember": 5175,
      "Ġelephants": 5176,
      "Ġdifference": 5177,
      "Ġluggage": 5178,
      "Ġmailman": 5179,
      "Ġcartoons": 5180,
      "Ġactually": 5181,
      "!\",": 5182,
      "Mark": 5183,
      "Ġuniversity": 5184,
      "Ġseats": 5185,
      "Ġleak": 5186,
      "Ġflood": 5187,
      "Ġglowed": 5188,
      "Not": 5189,
      "avid": 5190,
      "Ġsupposed": 5191,
      "Would": 5192,
      "Ġgrape": 5193,
      "Ġfixing": 5194,
      "Ġthermometer": 5195,
      "Jake": 5196,
      "allow": 5197,
      "Ġmarbles": 5198,
      "aspoon": 5199,
      "Ġpoppy": 5200,
      "!'": 5201,
      "Ġsprinkles": 5202,
      "Ġinclud": 5203,
      "Ġbricks": 5204,
      "Ġduring": 5205,
      "Johnny": 5206,
      "Ġteaspoon": 5207,
      "Ġpaints": 5208,
      "Ġsigns": 5209,
      "Ġrush": 5210,
      "Ġairplane": 5211,
      "ĠBetsy": 5212,
      "Al": 5213,
      "Ġconf": 5214,
      "Ġemer": 5215,
      "Ġmelted": 5216,
      "Ready": 5217,
      "Ġdiscovery": 5218,
      "Ġreceive": 5219,
      "Ġpotatoes": 5220,
      "Ġsurrounded": 5221,
      "Ġbrus": 5222,
      "ĠLater": 5223,
      "Ġmister": 5224,
      "Ġcurled": 5225,
      "Ġhurric": 5226,
      "Ġwatches": 5227,
      "ĠJoy": 5228,
      "Ġsip": 5229,
      "Ġwisdom": 5230,
      "Ġsore": 5231,
      "Ġgirls": 5232,
      "Ġzipped": 5233,
      "rise": 5234,
      "vet": 5235,
      "Ġpillows": 5236,
      "Ġtomatoes": 5237,
      "Ġrust": 5238,
      "Ġlaid": 5239,
      "Ġdaisy": 5240,
      "ĠLiz": 5241,
      "Ġdecision": 5242,
      "Ġproblems": 5243,
      "Ġfasc": 5244,
      "Ġpaused": 5245,
      "Ġgust": 5246,
      "Ġstrang": 5247,
      "Ġchewed": 5248,
      "ishing": 5249,
      "Ġtracks": 5250,
      "Ġweight": 5251,
      "Ġsliding": 5252,
      "Ġtide": 5253,
      "Ġcontain": 5254,
      "ĠSomeone": 5255,
      "Ġpatterns": 5256,
      "Ġsunrise": 5257,
      "Ġgain": 5258,
      "Ġbeat": 5259,
      "Ġpossible": 5260,
      "Ġgrocery": 5261,
      "Ġinvitation": 5262,
      "Ġunite": 5263,
      "Ġsings": 5264,
      "Ġgaz": 5265,
      "ĠRachel": 5266,
      "Ġwherever": 5267,
      "Ġslice": 5268,
      "Ġadmiring": 5269,
      "uing": 5270,
      "ÅĵIÃ¢": 5271,
      "Ġsunlight": 5272,
      "Ġcrashed": 5273,
      "ÅĵThatÃ¢": 5274,
      "walk": 5275,
      "Ġmanage": 5276,
      "Ġtwigs": 5277,
      "oved": 5278,
      "iers": 5279,
      "bbles": 5280,
      "eed": 5281,
      "Ġhurricane": 5282,
      "Ġordered": 5283,
      "Ġexercise": 5284,
      "Ġspaceship": 5285,
      "Ġspill": 5286,
      "Ġours": 5287,
      "bers": 5288,
      "Ġwatered": 5289,
      "Le": 5290,
      "Ġwre": 5291,
      "Ġcakes": 5292,
      "Ġracing": 5293,
      "Ġmarching": 5294,
      "Ġlick": 5295,
      "Ex": 5296,
      "Ġbeg": 5297,
      "Ġkindly": 5298,
      "cious": 5299,
      "Ġwhistling": 5300,
      "Ġlets": 5301,
      "Ġobserve": 5302,
      "ĠNut": 5303,
      "Ġgloves": 5304,
      "ĠLuna": 5305,
      "Ġspoons": 5306,
      "Ġspit": 5307,
      "Ġscur": 5308,
      "Ġpupp": 5309,
      "Ġcollecting": 5310,
      "ĠSharing": 5311,
      "Ġdrinks": 5312,
      "ities": 5313,
      "ĠCat": 5314,
      "Ġoperation": 5315,
      "fy": 5316,
      "Ġscratched": 5317,
      "ases": 5318,
      "Ġpetted": 5319,
      "Ġsidewalk": 5320,
      "Ġchir": 5321,
      "Ġglitter": 5322,
      "Ġburning": 5323,
      "Ġfascin": 5324,
      "ĠMe": 5325,
      "Ġeff": 5326,
      "Ġraised": 5327,
      "zag": 5328,
      "Ġlands": 5329,
      "Ġx": 5330,
      "Ġchirped": 5331,
      "Ġjogging": 5332,
      "Ġcontinue": 5333,
      "Ġsatis": 5334,
      "unday": 5335,
      "Ġtoe": 5336,
      "Ġpeanuts": 5337,
      "Ġstrangers": 5338,
      "ĠPoppy": 5339,
      "Ġbes": 5340,
      "Ġpigs": 5341,
      "Ġfed": 5342,
      "Ġfet": 5343,
      "Ġfolded": 5344,
      "Ġescaped": 5345,
      "Ġdoggy": 5346,
      "ipment": 5347,
      "hest": 5348,
      "Before": 5349,
      "ĠSunday": 5350,
      "Ġsoldiers": 5351,
      "Ġequipment": 5352,
      "Ġworks": 5353,
      "Ġgotten": 5354,
      "ĠPenny": 5355,
      "Ġofficer": 5356,
      "Ġearthqu": 5357,
      "Ouch": 5358,
      "mother": 5359,
      "Ġattached": 5360,
      "Ġcrunchy": 5361,
      "Ġcopper": 5362,
      "Ġscreams": 5363,
      "Ġmountains": 5364,
      "Yum": 5365,
      "ddy": 5366,
      "igzag": 5367,
      "ĠFro": 5368,
      "Ġwhistled": 5369,
      "ĠZoe": 5370,
      "Ġonwards": 5371,
      "loe": 5372,
      "Ġappear": 5373,
      "ĠSad": 5374,
      "Ġcomfy": 5375,
      "Ġnavy": 5376,
      "Ġpeered": 5377,
      "Ġclearing": 5378,
      "Ġbuildings": 5379,
      "Ġbeside": 5380,
      "ÅĵThank": 5381,
      "Ġwarn": 5382,
      "Ġsafari": 5383,
      "Ġhappiest": 5384,
      "Ġimage": 5385,
      "Ġtalent": 5386,
      "ĠAbigail": 5387,
      "Ġrefreshed": 5388,
      "ecture": 5389,
      "ĠLetÃ¢": 5390,
      "ĠSteve": 5391,
      "joyed": 5392,
      "Ġremem": 5393,
      "Ġhurried": 5394,
      "Ġhated": 5395,
      "\",": 5396,
      "Ġmeasuring": 5397,
      "Ġremembers": 5398,
      "ĠSpike": 5399,
      "ĠRuby": 5400,
      "Ġoverjoyed": 5401,
      "Ġolive": 5402,
      "Ġnetwork": 5403,
      "Ġselling": 5404,
      "Ġsecrets": 5405,
      "ĠNot": 5406,
      "Ġprice": 5407,
      "Ġskipping": 5408,
      "Ġwonders": 5409,
      "Ġplanted": 5410,
      "Really": 5411,
      "Ġlecture": 5412,
      "Ġbeds": 5413,
      "Ġmenu": 5414,
      "seek": 5415,
      "Ġswims": 5416,
      "ĠChirp": 5417,
      "Ġbowed": 5418,
      "aded": 5419,
      "Ġturning": 5420,
      "amie": 5421,
      "bbled": 5422,
      "Ġstrip": 5423,
      "Ġpies": 5424,
      "Ġeagle": 5425,
      "amb": 5426,
      "Ġwaits": 5427,
      "Ġprecious": 5428,
      "Ġtremb": 5429,
      "Ġbye": 5430,
      "Ġbrick": 5431,
      "Ġpitch": 5432,
      "Ġlips": 5433,
      "Ġbones": 5434,
      "Ġobey": 5435,
      "Ġbrand": 5436,
      "Ġcompany": 5437,
      "Ġdinosaurs": 5438,
      "Ġdisagreed": 5439,
      "Ġdrinking": 5440,
      "Ro": 5441,
      "Ġbrid": 5442,
      "Ġflap": 5443,
      "ÅĵWe": 5444,
      "Ġwooden": 5445,
      "Moral": 5446,
      "Ġslip": 5447,
      "Ġweren": 5448,
      "Ġprune": 5449,
      "ĠMilly": 5450,
      "Ġsucceeded": 5451,
      "ĠRemy": 5452,
      "Ġeffort": 5453,
      "Ġprepared": 5454,
      "Ġrecognized": 5455,
      "Ġpets": 5456,
      "Ġserved": 5457,
      "Ġshadows": 5458,
      "Ġmineral": 5459,
      "omas": 5460,
      "Ġkeeper": 5461,
      "Ġfireworks": 5462,
      "Ġcuddle": 5463,
      "ffic": 5464,
      "Ġcrept": 5465,
      "Ġreminder": 5466,
      "Ġhist": 5467,
      "Ġmouths": 5468,
      "Ġallow": 5469,
      "Ġcomforted": 5470,
      "son": 5471,
      "Ġchat": 5472,
      "Ġexa": 5473,
      "nie": 5474,
      "ĠNutty": 5475,
      "Ġwid": 5476,
      "Ġbridges": 5477,
      "Ġprayed": 5478,
      "Ġblueberry": 5479,
      "Ġrevealed": 5480,
      "Ġsimple": 5481,
      "Ġeveryday": 5482,
      "Ġvict": 5483,
      "Ġprinter": 5484,
      "Ġhistory": 5485,
      "Ġmeow": 5486,
      "Ġpedal": 5487,
      "Ġearthquake": 5488,
      "Ġeasier": 5489,
      "Susie": 5490,
      "Ġtraffic": 5491,
      "Ġcal": 5492,
      "Ġrang": 5493,
      "mare": 5494,
      "Ġoats": 5495,
      "Ġaccom": 5496,
      "cc": 5497,
      "Ġrested": 5498,
      "Ġcutting": 5499,
      "iggy": 5500,
      "Ġstyle": 5501,
      "Ġanytime": 5502,
      "Ġlandsc": 5503,
      "Ġtrapped": 5504,
      "Ġmuddy": 5505,
      "Ġrained": 5506,
      "Ġpadd": 5507,
      "Ġvillag": 5508,
      "Ġcatching": 5509,
      "Ġtip": 5510,
      "Ġwaist": 5511,
      "Ġacorns": 5512,
      "Ġbleeding": 5513,
      "ĠSunny": 5514,
      "Ġwhatever": 5515,
      "Ġvoices": 5516,
      "Ġzigzag": 5517,
      "Ġapologize": 5518,
      "Ġchef": 5519,
      "Ġstripes": 5520,
      "Ġsteel": 5521,
      "Ġwanting": 5522,
      "Ġnightmare": 5523,
      "Ġsettle": 5524,
      "Ġsoared": 5525,
      "Ġowned": 5526,
      "Ġcircus": 5527,
      "Ġwaffles": 5528,
      "Ġaccompl": 5529,
      "Ġsix": 5530,
      "Ġcreation": 5531,
      "Ġfirefight": 5532,
      "Ġbun": 5533,
      "Ġscoop": 5534,
      "Ġdisturbed": 5535,
      "Ġmonsters": 5536,
      "Ġsnowball": 5537,
      "Luckily": 5538,
      "Somet": 5539,
      "Ġfash": 5540,
      "ĠSomething": 5541,
      "ĠChr": 5542,
      "mble": 5543,
      "Ġgained": 5544,
      "Ġdoctors": 5545,
      "Ġperched": 5546,
      "Ġguessed": 5547,
      "ĠKatie": 5548,
      "Ġfreeze": 5549,
      "First": 5550,
      "Ġbreaking": 5551,
      "ĠRa": 5552,
      "Ġtastes": 5553,
      "Ġanswers": 5554,
      "Ġresponsible": 5555,
      "Ġshopping": 5556,
      "Ġcostumes": 5557,
      "ĠPr": 5558,
      "Ġagreement": 5559,
      "xygen": 5560,
      "Ġbeneath": 5561,
      "Ġlandscape": 5562,
      "Ġpracticing": 5563,
      "Ġpupil": 5564,
      "ien": 5565,
      "Ġolives": 5566,
      "Ġleather": 5567,
      "Ġvisiting": 5568,
      "ishes": 5569,
      "Ġdrag": 5570,
      "Ġcuriosity": 5571,
      "izing": 5572,
      "Ġwreck": 5573,
      "Ġvillagers": 5574,
      "Ġoutdo": 5575,
      "neath": 5576,
      "ÅĵCan": 5577,
      "ĠOw": 5578,
      "Ġbringing": 5579,
      "terday": 5580,
      "Ġmice": 5581,
      "Ġcontro": 5582,
      "Ġsoak": 5583,
      "Ġbrushed": 5584,
      "Ġitems": 5585,
      "laire": 5586,
      "enty": 5587,
      "Ġtremble": 5588,
      "Ġexactly": 5589,
      "Ġvel": 5590,
      "Ġfashion": 5591,
      "Ġdownstairs": 5592,
      "Ġladyb": 5593,
      "Ġeats": 5594,
      "Ġstealing": 5595,
      "Ġarea": 5596,
      "ĠMat": 5597,
      "ĠJe": 5598,
      "Ġrele": 5599,
      "Ġsadness": 5600,
      "ulu": 5601,
      "Or": 5602,
      "Ġstruggled": 5603,
      "Ġcaut": 5604,
      "Ġvelvet": 5605,
      "Ġtwirling": 5606,
      "Tweet": 5607,
      "Ġripped": 5608,
      "Ġactiv": 5609,
      "Ġargued": 5610,
      "ding": 5611,
      "ĠThese": 5612,
      "ley": 5613,
      "Ġsi": 5614,
      "ĠSpark": 5615,
      "Ġgrandmother": 5616,
      "ĠQu": 5617,
      "Ġfamil": 5618,
      "Ġmission": 5619,
      "Ġdied": 5620,
      "oming": 5621,
      "Ġfascinated": 5622,
      "Ġwrites": 5623,
      "Ġunlocked": 5624,
      "annah": 5625,
      "die": 5626,
      "Ġencourage": 5627,
      "Ġrecognize": 5628,
      "ik": 5629,
      "Ġknelt": 5630,
      "Ġinstruct": 5631,
      "isten": 5632,
      "Ġsisters": 5633,
      "ĠFrank": 5634,
      ".'": 5635,
      "Ġvictory": 5636,
      "Un": 5637,
      "Ġweighed": 5638,
      "Ġunderground": 5639,
      "Ġexamined": 5640,
      "ĠJan": 5641,
      "Ġkeys": 5642,
      "Ġpermit": 5643,
      "icorn": 5644,
      "Ġunicorn": 5645,
      "indy": 5646,
      "Ġnicer": 5647,
      "Ġsoaring": 5648,
      "Ġexit": 5649,
      "Ġzero": 5650,
      "ĠChirpy": 5651,
      "Ġplanned": 5652,
      "Ġbegin": 5653,
      "usan": 5654,
      "ux": 5655,
      "Ġtickets": 5656,
      "Ġwagging": 5657,
      "Ġlemons": 5658,
      "Ġjogged": 5659,
      "Ġrealize": 5660,
      "Ġtugged": 5661,
      "Ġpearl": 5662,
      "Ġslapped": 5663,
      "Ġrides": 5664,
      "Ġloaded": 5665,
      "Ġwondering": 5666,
      "Ġsupplies": 5667,
      "Ġbare": 5668,
      "Ġsitu": 5669,
      "Ġpinched": 5670,
      "Ġshivering": 5671,
      "ĠDavid": 5672,
      "ĠHowever": 5673,
      "Ġdecorated": 5674,
      "Ġstudied": 5675,
      "Ġsneaked": 5676,
      "Ġnails": 5677,
      "Ġoxygen": 5678,
      "ĠFirst": 5679,
      "Ġoutdoors": 5680,
      "Fluffy": 5681,
      "Ġbunnies": 5682,
      "Ġbend": 5683,
      "ica": 5684,
      "Dave": 5685,
      "Ġchallenge": 5686,
      "Ġruin": 5687,
      "Ġann": 5688,
      "inda": 5689,
      "Ġwinner": 5690,
      "Ġsting": 5691,
      "looking": 5692,
      "Ġkeeps": 5693,
      "ĠOl": 5694,
      "Ġcontrol": 5695,
      "Ġinstructions": 5696,
      "ĠCoco": 5697,
      "Ġmachines": 5698,
      "Ġyelling": 5699,
      "Ġsiren": 5700,
      "ÅĵDon": 5701,
      "Ġwinning": 5702,
      "ears": 5703,
      "Ġpunished": 5704,
      "Ġpastel": 5705,
      "Ġpiles": 5706,
      "ĠTw": 5707,
      "ĠLike": 5708,
      "Ġemergen": 5709,
      "Ġcomple": 5710,
      "Ġaccidents": 5711,
      "ĠUncle": 5712,
      "ĠSuzy": 5713,
      "Ġpeel": 5714,
      "Ġfetch": 5715,
      "uxu": 5716,
      "ĠItÃ¢": 5717,
      "Ġshoulders": 5718,
      "Happy": 5719,
      "Ġunderneath": 5720,
      "ĠAnne": 5721,
      "aky": 5722,
      "Ġfiremen": 5723,
      "len": 5724,
      "Ġbeha": 5725,
      "Ġdraws": 5726,
      "Sometimes": 5727,
      "ira": 5728,
      "Ġstretching": 5729,
      "Ġsatisfied": 5730,
      "ĠBeth": 5731,
      "Ġgathering": 5732,
      "Ġmixing": 5733,
      "Ġincrease": 5734,
      "Ġlines": 5735,
      "Ġproperly": 5736,
      "ĠBig": 5737,
      "ĠJulie": 5738,
      "ayla": 5739,
      "Ġzooming": 5740,
      "Ġstirring": 5741,
      "Ġloving": 5742,
      "Ġtravell": 5743,
      "Ġdam": 5744,
      "oh": 5745,
      "Ġago": 5746,
      "Ġbroom": 5747,
      "ĠKe": 5748,
      "Ġpockets": 5749,
      "anta": 5750,
      "Ġintroduc": 5751,
      "Ġteasing": 5752,
      "Ġprinted": 5753,
      "Ġclaps": 5754,
      "Ġneighbourhood": 5755,
      "bbing": 5756,
      "Ġneighbors": 5757,
      "ÅĵLook": 5758,
      "Lola": 5759,
      "Ġstair": 5760,
      "Ġpancakes": 5761,
      "Ġbrushes": 5762,
      "shing": 5763,
      "Ġsights": 5764,
      "Ġtim": 5765,
      "agull": 5766,
      "thank": 5767,
      "Rex": 5768,
      "Ġpeaches": 5769,
      "Ġtune": 5770,
      "Ġcape": 5771,
      "ĠDid": 5772,
      "ĠFloppy": 5773,
      "Bella": 5774,
      "Ġruler": 5775,
      "Ġreleased": 5776,
      "va": 5777,
      "Ġdeser": 5778,
      "oed": 5779,
      "icky": 5780,
      "Ġbudge": 5781,
      "ĠStop": 5782,
      "gers": 5783,
      "uke": 5784,
      "Ġherbs": 5785,
      "Ġbunch": 5786,
      "Ġintroduce": 5787,
      "Ġluxu": 5788,
      "Ġdecides": 5789,
      "Ġfrosting": 5790,
      "Ġmuscles": 5791,
      "ashed": 5792,
      "zen": 5793,
      "ays": 5794,
      "Ġseagull": 5795,
      "Ġdrift": 5796,
      "Ġguns": 5797,
      "Ġribbons": 5798,
      "Ġprotected": 5799,
      "âĤ¬âĢĿ": 5800,
      "Ġpoking": 5801,
      "Mr": 5802,
      "Ġprunes": 5803,
      "owers": 5804,
      "Ġrelease": 5805,
      "ÅĵThis": 5806,
      "Ġparked": 5807,
      "low": 5808,
      "Ġconfident": 5809,
      "ales": 5810,
      "Goodbye": 5811,
      "Mike": 5812,
      "Ġmarks": 5813,
      "Ġcamping": 5814,
      "Ġbuckets": 5815,
      "Ġsolut": 5816,
      "Cl": 5817,
      "George": 5818,
      "Ġinch": 5819,
      "Ġopin": 5820,
      "Ġspiders": 5821,
      "dam": 5822,
      "Ġtouching": 5823,
      "Henry": 5824,
      "Ġpurred": 5825,
      "Ġladybug": 5826,
      "Ġdent": 5827,
      "Ġstitch": 5828,
      "Ġcrowd": 5829,
      "ĠletÃ¢": 5830,
      "Ġgiggling": 5831,
      "Teddy": 5832,
      "Ġshock": 5833,
      "Ġbaked": 5834,
      "Ġcompetition": 5835,
      "Ġstudying": 5836,
      "ĠAm": 5837,
      "Ġdragons": 5838,
      "riage": 5839,
      "Ġstruck": 5840,
      "Ah": 5841,
      "Ġbeard": 5842,
      "Ġyouth": 5843,
      "Ġourselves": 5844,
      "Ġburrow": 5845,
      "Ġmast": 5846,
      "nes": 5847,
      "Ġsides": 5848,
      "Ġsurface": 5849,
      "ĠRabbit": 5850,
      "Ġrepeated": 5851,
      "Ġdemanded": 5852,
      "Ġmentioned": 5853,
      "ĠAn": 5854,
      "Mar": 5855,
      "ĠLucky": 5856,
      "Ġtickle": 5857,
      "bies": 5858,
      "ais": 5859,
      "icked": 5860,
      "Ġfrozen": 5861,
      "Maggie": 5862,
      "Ġeight": 5863,
      "ednes": 5864,
      "Ġvowed": 5865,
      "Ġentire": 5866,
      "Ġemergency": 5867,
      "ednesday": 5868,
      "zie": 5869,
      "Ġ1": 5870,
      "Ġsweeties": 5871,
      "uctantly": 5872,
      "Ella": 5873,
      "Ġsteep": 5874,
      "uesday": 5875,
      "Ġproject": 5876,
      "Ġpoliceman": 5877,
      "Ġgazed": 5878,
      "Ġmovies": 5879,
      "ason": 5880,
      "ĠPip": 5881,
      "Ġforgi": 5882,
      "Ġbabies": 5883,
      "Ġbouncy": 5884,
      "Ġgrant": 5885,
      "ÅĵHello": 5886,
      "Ġdragged": 5887,
      "Andy": 5888,
      "jam": 5889,
      "Ġsoaked": 5890,
      "Ġsorting": 5891,
      "Ġstrings": 5892,
      "Ġcrumb": 5893,
      "Ġhorns": 5894,
      "Ġloose": 5895,
      "Joey": 5896,
      "Ġexpect": 5897,
      "ĠZoom": 5898,
      "Ġscurried": 5899,
      "Ġcautious": 5900,
      "Ġbarely": 5901,
      "Ġsilence": 5902,
      "ern": 5903,
      "edding": 5904,
      "Ġtonight": 5905,
      "Ġvent": 5906,
      "Ġsnail": 5907,
      "Ġdiscovering": 5908,
      "Ġmittens": 5909,
      "ĠCarl": 5910,
      "Ġrainbows": 5911,
      "Ġpouring": 5912,
      "ĠChloe": 5913,
      "kins": 5914,
      "Ġinterest": 5915,
      "Ġwound": 5916,
      "ĠWednesday": 5917,
      "Ġfoods": 5918,
      "ĠTiny": 5919,
      "Ġeast": 5920,
      "Ġhonk": 5921,
      "Ġmuffins": 5922,
      "ĠOnce": 5923,
      "Ġtexture": 5924,
      "Ġcones": 5925,
      "Ġseason": 5926,
      "Bobby": 5927,
      "Ġdrives": 5928,
      "tiest": 5929,
      "Ġprettiest": 5930,
      "ĠGr": 5931,
      "Ġstole": 5932,
      "Ġkicking": 5933,
      "Ġguys": 5934,
      "Ġresult": 5935,
      "imy": 5936,
      "ĠTuesday": 5937,
      "ena": 5938,
      "exp": 5939,
      "Ġrubbing": 5940,
      "Ġprints": 5941,
      "Ġbank": 5942,
      "Ġlied": 5943,
      "Ġpears": 5944,
      "Ġsausages": 5945,
      "ĠHop": 5946,
      "Ġacted": 5947,
      "Ġhighest": 5948,
      "Remember": 5949,
      "ĠThomas": 5950,
      "Ġchases": 5951,
      "Ġpatience": 5952,
      "Ġfab": 5953,
      "Ġweb": 5954,
      "Ġfabric": 5955,
      "Ġshelves": 5956,
      "Fred": 5957,
      "Grandpa": 5958,
      "Ġgoodnight": 5959,
      "Ġmater": 5960,
      "ĠBetty": 5961,
      "Ġmateri": 5962,
      "Ġpowers": 5963,
      "Ġrocked": 5964,
      "Ġurged": 5965,
      "Pete": 5966,
      "Ġplanets": 5967,
      "hins": 5968,
      "izzie": 5969,
      "ĠLulu": 5970,
      "Ġcurly": 5971,
      "Ġapplauded": 5972,
      "Ġluxury": 5973,
      "ĠBir": 5974,
      "Ġchewing": 5975,
      "ĠSanta": 5976,
      "ledge": 5977,
      "ĠBubbles": 5978,
      "Ġcompleted": 5979,
      "expected": 5980,
      "Ġflat": 5981,
      "ĠTilly": 5982,
      "Ġchips": 5983,
      "Ġreluctantly": 5984,
      "Ġstrike": 5985,
      "Ġcatches": 5986,
      "Ġti": 5987,
      "Ġstaring": 5988,
      "Uh": 5989,
      "Ġcurtains": 5990,
      "ĠCar": 5991,
      "esome": 5992,
      "usted": 5993,
      "ÅĵWhy": 5994,
      "Ġbloomed": 5995,
      "Ġtwinkling": 5996,
      "ÅĵDonÃ¢": 5997,
      "Ġwest": 5998,
      "Ġsighs": 5999,
      "Ġknowledge": 6000,
      "avi": 6001,
      "eezing": 6002,
      "ĠJosh": 6003,
      "Ġunexpected": 6004,
      "Ġinclude": 6005,
      "Ġcuts": 6006,
      "Ġstamps": 6007,
      "Ġmatched": 6008,
      "Ġsafer": 6009,
      "ĠJamie": 6010,
      "ĠSusan": 6011,
      "Ġthreat": 6012,
      "though": 6013,
      "Ġsinger": 6014,
      "Ġlibrarian": 6015,
      "Ġcontest": 6016,
      "Ġfigured": 6017,
      "Ġimportance": 6018,
      "uly": 6019,
      "ĠSure": 6020,
      "Ġdirection": 6021,
      "Ġsituation": 6022,
      "ĠRob": 6023,
      "Ġshivered": 6024,
      "uzz": 6025,
      "Ġblink": 6026,
      "Ġwedding": 6027,
      "Ġachieve": 6028,
      "Ġheel": 6029,
      "Ġbottles": 6030,
      "Ġawesome": 6031,
      "Ġpebbles": 6032,
      "Ġpassing": 6033,
      "Ġroaring": 6034,
      "Ġsorted": 6035,
      "Ġslimy": 6036,
      "Ġreplac": 6037,
      "Ġbravery": 6038,
      "Ġdusty": 6039,
      "ÅĵOh": 6040,
      "Ġpretends": 6041,
      "Ġdolphins": 6042,
      "Ġsnugg": 6043,
      "fit": 6044,
      "Ġcheering": 6045,
      "Ye": 6046,
      "Ġhugging": 6047,
      "Ġexha": 6048,
      "bert": 6049,
      "Ġintroduced": 6050,
      "une": 6051,
      "ĠAlways": 6052,
      "ĠcanÃ¢": 6053,
      "Ġbalancing": 6054,
      "Ġhomework": 6055,
      "acob": 6056,
      "Ġtheirs": 6057,
      "Ġpatted": 6058,
      "Ġusual": 6059,
      "hello": 6060,
      "Ġwaiter": 6061,
      "Ġshined": 6062,
      "Ġsweets": 6063,
      "Ġmatching": 6064,
      "Ġmarkers": 6065,
      "Ġoutfit": 6066,
      "Ġworkers": 6067,
      "Ġscreaming": 6068,
      "Ġpout": 6069,
      "Ġsolution": 6070,
      "Kitty": 6071,
      "immer": 6072,
      "Ġsticking": 6073,
      "cuse": 6074,
      "Ġtraveled": 6075,
      "Ġplenty": 6076,
      "Ġrocking": 6077,
      "jamas": 6078,
      "Danny": 6079,
      "lee": 6080,
      "Ġflags": 6081,
      "Fr": 6082,
      "you": 6083,
      "Ġtowels": 6084,
      "Yeah": 6085,
      "Ġfault": 6086,
      "Ġgreet": 6087,
      "Ġmarriage": 6088,
      "...": 6089,
      "ĠyouÃ¢": 6090,
      "Ġmotion": 6091,
      "essie": 6092,
      "Ġroads": 6093,
      "James": 6094,
      "Ġwritten": 6095,
      "Ġreaching": 6096,
      "ĠClaire": 6097,
      "Ġgrowl": 6098,
      "Ġblooming": 6099,
      "Excuse": 6100,
      "Ġdared": 6101,
      "Ġgoals": 6102,
      "ĠLou": 6103,
      "irts": 6104,
      "Ġexpected": 6105,
      "Ġexhausted": 6106,
      "ivery": 6107,
      "Ġuses": 6108,
      "Ġradishes": 6109,
      "Ġdisagree": 6110,
      "iar": 6111,
      "Ġarguing": 6112,
      "Ġcaused": 6113,
      "Ġrescued": 6114,
      "ids": 6115,
      "Ġsway": 6116,
      "Ġlamb": 6117,
      "Ġmane": 6118,
      "Ġsled": 6119,
      "Ġpaintings": 6120,
      "Ġobserved": 6121,
      "ults": 6122,
      "iles": 6123,
      "Ġstartled": 6124,
      "Ġtruly": 6125,
      "Ġguest": 6126,
      "Ġrecorded": 6127,
      "Ġzookeeper": 6128,
      "Ġkneeled": 6129,
      "Leo": 6130,
      "Ġincluded": 6131,
      "itely": 6132,
      "Ġranger": 6133,
      "Ġfart": 6134,
      "ĠHa": 6135,
      "Ġslap": 6136,
      "Ġstare": 6137,
      "Ġleap": 6138,
      "Ġspraying": 6139,
      "Ġtrembling": 6140,
      "Ġworker": 6141,
      "Ġarrive": 6142,
      "Ġpacking": 6143,
      "ĠJones": 6144,
      "ctions": 6145,
      "Ġstorekeeper": 6146,
      "Ġregretted": 6147,
      "Ġrockets": 6148,
      "Ġcreating": 6149,
      "ĠYes": 6150,
      "Ġlap": 6151,
      "Ġresting": 6152,
      "Ġprincesses": 6153,
      "Annie": 6154,
      "Ġflavor": 6155,
      "Mrs": 6156,
      "Ġtimer": 6157,
      "aa": 6158,
      "Ġast": 6159,
      "Ġagrees": 6160,
      "ences": 6161,
      "Charlie": 6162,
      "Ġventured": 6163,
      "njoy": 6164,
      "Ġspike": 6165,
      "Ġlearns": 6166,
      "Grace": 6167,
      "Ġreply": 6168,
      "Ġgrowling": 6169,
      "Ġcompletely": 6170,
      "Ġpoems": 6171,
      "Ġstern": 6172,
      "Ġrobb": 6173,
      "Ġdelivery": 6174,
      "Ġpartic": 6175,
      "Ġorganizing": 6176,
      "Ġpencils": 6177,
      "ĠSadly": 6178,
      "Sophie": 6179,
      "Ġcent": 6180,
      "Ġpajamas": 6181,
      "Ġbaker": 6182,
      "Ġvanish": 6183,
      "Ġfir": 6184,
      "Ġchuck": 6185,
      "Ġsnakes": 6186,
      "Ġusually": 6187,
      "Afterwards": 6188,
      "vin": 6189,
      "Ġheav": 6190,
      "Ġopening": 6191,
      "Ġinviting": 6192,
      "ĠChrist": 6193,
      "Ġscra": 6194,
      "Ġprayer": 6195,
      "Ġpenguins": 6196,
      "Ġquacked": 6197,
      "Ġcrumbs": 6198,
      "ĠAunt": 6199,
      "ĠJeff": 6200,
      "Ġsuitc": 6201,
      "hell": 6202,
      "Paul": 6203,
      "Ġflames": 6204,
      "Ġpaddled": 6205,
      "ora": 6206,
      "Ġtwinkle": 6207,
      "vers": 6208,
      "oys": 6209,
      "Ġremoved": 6210,
      "Ġowners": 6211,
      "ĠHoppy": 6212,
      "ĠBoth": 6213,
      "ĠwasnÃ¢": 6214,
      "ĠJenna": 6215,
      "Ġfirm": 6216,
      "ĠFor": 6217,
      "ĠJessie": 6218,
      "Ġbead": 6219,
      "Ġstruggle": 6220,
      "Ġwink": 6221,
      "Ġaccomplish": 6222,
      "ĠMad": 6223,
      "asm": 6224,
      "Ġworries": 6225,
      "Ġeverybody": 6226,
      "Ġcountryside": 6227,
      "Ġwasted": 6228,
      "Ġdentist": 6229,
      "mas": 6230,
      "ĠBye": 6231,
      "Ġremote": 6232,
      "However": 6233,
      "Ġreplaced": 6234,
      "Ġbelly": 6235,
      "Ġrubs": 6236,
      "pite": 6237,
      "aze": 6238,
      "angled": 6239,
      "Ġteaches": 6240,
      "Ġunf": 6241,
      "Ġcott": 6242,
      "aty": 6243,
      "Ġwandering": 6244,
      "lowly": 6245,
      "per": 6246,
      "Ġroots": 6247,
      "Ġcomm": 6248,
      "Ġactivities": 6249,
      "Ġcrabs": 6250,
      "Ġhealed": 6251,
      "ĠLeave": 6252,
      "Ġlollipops": 6253,
      "Ġunited": 6254,
      "Ġpolishing": 6255,
      "iding": 6256,
      "Ġscales": 6257,
      "Ġreveal": 6258,
      "Ġswirl": 6259,
      "Ġfairies": 6260,
      "aisies": 6261,
      "go": 6262,
      "Ġthro": 6263,
      "Ġmisses": 6264,
      "Ġscru": 6265,
      "Ġseesaw": 6266,
      "Ġrolls": 6267,
      "Ġpots": 6268,
      "Ġvalued": 6269,
      "Ġthroat": 6270,
      "Ġboo": 6271,
      "Ġpolished": 6272,
      "Ġcloses": 6273,
      "Ġboom": 6274,
      "Ġdaisies": 6275,
      "opes": 6276,
      "dies": 6277,
      "ĠChristmas": 6278,
      "Ġparticular": 6279,
      "ĠAbby": 6280,
      "Ġdesert": 6281,
      "Ġrisk": 6282,
      "Ġtractor": 6283,
      "Ġdarkness": 6284,
      "Ġwinked": 6285,
      "Ġrelief": 6286,
      "Ġmelting": 6287,
      "Ġwires": 6288,
      "Ġdirections": 6289,
      "ĠBy": 6290,
      "Ġpeeking": 6291,
      "Ġcrackers": 6292,
      "Ġhelmets": 6293,
      "ĠFollow": 6294,
      "Ġinterested": 6295,
      "Ġfaced": 6296,
      "Ġknights": 6297,
      "ĠMatt": 6298,
      "Ġgaze": 6299,
      "ĠJu": 6300,
      "araway": 6301,
      "Ġbecoming": 6302,
      "Ġrings": 6303,
      "Ġbalanced": 6304,
      "Ġyounger": 6305,
      "Ġcautiously": 6306,
      "Mittens": 6307,
      "Ġcracked": 6308,
      "Ġcause": 6309,
      "Ġfaraway": 6310,
      "ĠMart": 6311,
      "ĠLinda": 6312,
      "Ġphotos": 6313,
      "Ab": 6314,
      "Ëľ": 6315,
      "ĠY": 6316,
      "ĠĊĠ": 6317,
      "âĤ¬Ëľ": 6318,
      "Ġpastries": 6319,
      "Ġleader": 6320,
      "ĠOut": 6321,
      "Ġfreed": 6322,
      "Ġsigned": 6323,
      "ĠJohnson": 6324,
      "ĠBo": 6325,
      "Ġsingle": 6326,
      "Ġfuzzy": 6327,
      "ĠSorry": 6328,
      "Ġcash": 6329,
      "Ġstem": 6330,
      "Ġrestored": 6331,
      "ophia": 6332,
      "ĠFox": 6333,
      "Ġwiggled": 6334,
      "Ġdipped": 6335,
      "Ġsquealed": 6336,
      "boat": 6337,
      "Ġgroceries": 6338,
      "Ġlogs": 6339,
      "ĠMomo": 6340,
      "Ġstaying": 6341,
      "Ġnaps": 6342,
      "Ġitchy": 6343,
      "ĠUnfortunately": 6344,
      "lings": 6345,
      "Ġcoloured": 6346,
      "Ġforehead": 6347,
      "Ġchuckled": 6348,
      "ĠDolly": 6349,
      "Bad": 6350,
      "Ġhowever": 6351,
      "Ġyesterday": 6352,
      "Ġwrist": 6353,
      "Ġfilling": 6354,
      "Fine": 6355,
      "Ġcough": 6356,
      "Ġwow": 6357,
      "Ġripe": 6358,
      "Ġsneaky": 6359,
      "Ellie": 6360,
      "Ġblows": 6361,
      "Ġseems": 6362,
      "Harry": 6363,
      "rance": 6364,
      "Ġden": 6365,
      "Ġslam": 6366,
      "Ġlistens": 6367,
      "ĠPut": 6368,
      "Ġrefle": 6369,
      "Millie": 6370,
      "Ġcous": 6371,
      "ĠBeing": 6372,
      "Ġopinion": 6373,
      "Ġrecording": 6374,
      "Ġfluttered": 6375,
      "Ġbeads": 6376,
      "Ġtrips": 6377,
      "ĠPinky": 6378,
      "Ġsilent": 6379,
      "Ġlined": 6380,
      "Ġmarked": 6381,
      "Ġbowls": 6382,
      "Ġswooped": 6383,
      "Ġtricked": 6384,
      "Ġactions": 6385,
      "oline": 6386,
      "Unfortunately": 6387,
      "Ġtipt": 6388,
      "Ġfirefighters": 6389,
      "Alex": 6390,
      "Rose": 6391,
      "Sandy": 6392,
      "Ġsplashes": 6393,
      "Toby": 6394,
      "bbly": 6395,
      "Ġdetermination": 6396,
      "Ġsnat": 6397,
      "Ġhider": 6398,
      "ĠSuzie": 6399,
      "Ġhissed": 6400,
      "Ġpiggy": 6401,
      "Ġwears": 6402,
      "cited": 6403,
      "Ġadding": 6404,
      "Ġbumps": 6405,
      "Ġstroll": 6406,
      "Ġkites": 6407,
      "ĠLizzie": 6408,
      "Ġtwin": 6409,
      "Ġseeker": 6410,
      "Ġsnowballs": 6411,
      "Ġhi": 6412,
      "ilo": 6413,
      "igi": 6414,
      "Ġhandful": 6415,
      "Ġtricky": 6416,
      "ĠPipp": 6417,
      "Ġconn": 6418,
      "ords": 6419,
      "Ġsomebody": 6420,
      "Ġpleasure": 6421,
      "Ġsobbed": 6422,
      "ĠLuke": 6423,
      "Ġstays": 6424,
      "Ġsandcastles": 6425,
      "yond": 6426,
      "Ġsense": 6427,
      "Ġbeyond": 6428,
      "Ġroses": 6429,
      "Ġrule": 6430,
      "Ġfroze": 6431,
      "ppers": 6432,
      "Ġhealth": 6433,
      "Ġscarves": 6434,
      "Ġcopy": 6435,
      "ĠJessica": 6436,
      "Ġexplorers": 6437,
      "Ġlighter": 6438,
      "ĠDoggy": 6439,
      "Ġcubes": 6440,
      "ÅĵMommy": 6441,
      "Ġprotecting": 6442,
      "Ġprovided": 6443,
      "Ġaff": 6444,
      "Ġawake": 6445,
      "Ġcovers": 6446,
      "ĠMany": 6447,
      "Ġbakery": 6448,
      "Ġbumpy": 6449,
      "ĠKeep": 6450,
      "incess": 6451,
      "Ġdarker": 6452,
      "ility": 6453,
      "Ġlung": 6454,
      "Ġseven": 6455,
      "ĠHannah": 6456,
      "Ġcelebration": 6457,
      "affes": 6458,
      "iki": 6459,
      "Ġbacked": 6460,
      "ĠKayla": 6461,
      "Ġsecure": 6462,
      "Some": 6463,
      "Ġinsp": 6464,
      "Ġnect": 6465,
      "Ġdelivered": 6466,
      "Ġcalmed": 6467,
      "Ġnectar": 6468,
      "Ġbars": 6469,
      "ĠEnjoy": 6470,
      "Ġgiraffes": 6471,
      "Run": 6472,
      "Ġnoon": 6473,
      "Ġyourselves": 6474,
      "Ġstolen": 6475,
      "Ġpastels": 6476,
      "Ġcashier": 6477,
      "anes": 6478,
      "Ġglasses": 6479,
      "Ġtickled": 6480,
      "Ġpedals": 6481,
      "ĠQuack": 6482,
      "Kate": 6483,
      "ĠBird": 6484,
      "ĠFriend": 6485,
      "Ġdeal": 6486,
      "Ġentrance": 6487,
      "Ġinsects": 6488,
      "Ġcomplaining": 6489,
      "Ġmes": 6490,
      "ĠWatch": 6491,
      "Ġglee": 6492,
      "Ġjoking": 6493,
      "ÅĵWhatÃ¢": 6494,
      "Nina": 6495,
      "ormed": 6496,
      "umm": 6497,
      "Ġattack": 6498,
      "Ġmesmer": 6499,
      "Sad": 6500,
      "boo": 6501,
      "Ġliqu": 6502,
      "Bun": 6503,
      "Ġsuitcase": 6504,
      "?'": 6505,
      "Ġthorn": 6506,
      "Ġcust": 6507,
      "Ġcans": 6508,
      "aren": 6509,
      "Ġcowb": 6510,
      "ĠNothing": 6511,
      "ĠAdam": 6512,
      "Ġafterwards": 6513,
      "Ġtallest": 6514,
      "Ġtalented": 6515,
      "rious": 6516,
      "ĠMick": 6517,
      "Ġmiles": 6518,
      "arter": 6519,
      "ths": 6520,
      "ĠLizzy": 6521,
      "coat": 6522,
      "Ġsalty": 6523,
      "Ġfolding": 6524,
      "Ġinstrum": 6525,
      "Ġcustom": 6526,
      "Ġopp": 6527,
      "Ġbadge": 6528,
      "Ġseashell": 6529,
      "Ġfarther": 6530,
      "igers": 6531,
      "May": 6532,
      "no": 6533,
      "ĠGet": 6534,
      "ĠMo": 6535,
      "ĠMon": 6536,
      "Ġreads": 6537,
      "ners": 6538,
      "elle": 6539,
      "Ġkicks": 6540,
      "Ġbeginning": 6541,
      "ĠTwo": 6542,
      "Ġsib": 6543,
      "aura": 6544,
      "ĠEverybody": 6545,
      "hee": 6546,
      "arling": 6547,
      "Ġparties": 6548,
      "choo": 6549,
      "Ġcolored": 6550,
      "Ġsmarter": 6551,
      "Ġmasks": 6552,
      "Ġty": 6553,
      "ĠWater": 6554,
      "Ġspeaking": 6555,
      "ĠTara": 6556,
      "Ġbehavi": 6557,
      "Ġachieved": 6558,
      "Ġknees": 6559,
      "ĠPl": 6560,
      "ĠTess": 6561,
      "ossible": 6562,
      "Bl": 6563,
      "Ġcandies": 6564,
      "Ġgems": 6565,
      "Ġraincoat": 6566,
      "rig": 6567,
      "Ġimpossible": 6568,
      "Ġacting": 6569,
      "Ġwipes": 6570,
      "Ġvideos": 6571,
      "Ġmarker": 6572,
      "Ġknocks": 6573,
      "band": 6574,
      "step": 6575,
      "sequ": 6576,
      "Ġweeping": 6577,
      "iled": 6578,
      "ĠBuzzy": 6579,
      "ana": 6580,
      "ĠCindy": 6581,
      "Ġrecommended": 6582,
      "Ġtangled": 6583,
      "Those": 6584,
      "Ġburst": 6585,
      "Ġmi": 6586,
      "Ġconsequ": 6587,
      "Ġindeed": 6588,
      "Ġclick": 6589,
      "ĠPandy": 6590,
      "Ġsteer": 6591,
      "Polly": 6592,
      "Ġbuying": 6593,
      "Ġjackets": 6594,
      "Ġmixture": 6595,
      "Ġdots": 6596,
      "Ġpause": 6597,
      "Ġimproved": 6598,
      "Ġaccomplishment": 6599,
      "Ġchoices": 6600,
      "Ġarrows": 6601,
      "Ġexperien": 6602,
      "Ġsmiley": 6603,
      "ĠNina": 6604,
      "Ġchefs": 6605,
      "ĠHappy": 6606,
      "Ġtigers": 6607,
      "Ġliquid": 6608,
      "Time": 6609,
      "ĠJazz": 6610,
      "?\",": 6611,
      "Ġpaddle": 6612,
      "Ġteased": 6613,
      "itches": 6614,
      "Ġcheeks": 6615,
      "Ġmagnets": 6616,
      "ĠRobby": 6617,
      "Ġswimsuit": 6618,
      "Ġscaring": 6619,
      "ĠPrincess": 6620,
      "ĠEarth": 6621,
      "brush": 6622,
      "umbling": 6623,
      "Tina": 6624,
      "Ġwins": 6625,
      "ĠLuckily": 6626,
      "ĠwouldnÃ¢": 6627,
      "ivity": 6628,
      "Ġcomplained": 6629,
      "Ġbedtime": 6630,
      "Ġshirts": 6631,
      "ÅĵDo": 6632,
      "Ġdrums": 6633,
      "Ġrumble": 6634,
      "Ġsnatched": 6635,
      "hew": 6636,
      "Ġwee": 6637,
      "ept": 6638,
      "Ġchoo": 6639,
      "ĠMel": 6640,
      "urry": 6641,
      "Ġpaying": 6642,
      "ĠJulia": 6643,
      "tle": 6644,
      "atul": 6645,
      "vest": 6646,
      "Ġhallway": 6647,
      "Ġtravelled": 6648,
      "tuce": 6649,
      "Ġstung": 6650,
      "ĠJacob": 6651,
      "Ġlettuce": 6652,
      "Ġhesitated": 6653,
      "Ġannoy": 6654,
      "Days": 6655,
      "cope": 6656,
      "Ġfamilies": 6657,
      "Ġconsequences": 6658,
      "Ġlun": 6659,
      "ĠSqu": 6660,
      "Ġneither": 6661,
      "Ġperformance": 6662,
      "ÅĵCome": 6663,
      "Ġcreativity": 6664,
      "Ġtasks": 6665,
      "Ġbehaved": 6666,
      "Ġscrubbed": 6667,
      "Ġthird": 6668,
      "Ġswept": 6669,
      "ÅĵHi": 6670,
      "Ġruining": 6671,
      "Ġwidened": 6672,
      "ĠĠĊ": 6673,
      "abel": 6674,
      "rigued": 6675,
      "itched": 6676,
      "ĠJon": 6677,
      "Ġflapping": 6678,
      "Ġgracefully": 6679,
      "Ġneedles": 6680,
      "Ġsnuck": 6681,
      "ÅĵWow": 6682,
      "Ġsailboat": 6683,
      "Ġcupcakes": 6684,
      "Ġclowns": 6685,
      "Ġlower": 6686,
      "Ġpouted": 6687,
      "Milly": 6688,
      "eal": 6689,
      "elia": 6690,
      "indr": 6691,
      "Ġleading": 6692,
      "Ġseconds": 6693,
      "Ġyells": 6694,
      "Ġwrapping": 6695,
      "Lilly": 6696,
      "yan": 6697,
      "Ġbasement": 6698,
      "Ġstroked": 6699,
      "endy": 6700,
      "Ġraindr": 6701,
      "ĠSnugg": 6702,
      "Ġrusty": 6703,
      "ĠSlowly": 6704,
      "Ġfever": 6705,
      "Ġcelebrating": 6706,
      "Shh": 6707,
      "Ġdrifted": 6708,
      "Bobo": 6709,
      "Ġhearing": 6710,
      "Ġech": 6711,
      "Ġcreamy": 6712,
      "Ġfluttering": 6713,
      "Que": 6714,
      "ĠWithout": 6715,
      "ĠSque": 6716,
      "Ġswans": 6717,
      "ĠGoodbye": 6718,
      "ded": 6719,
      "ans": 6720,
      "Ġdiving": 6721,
      "Ġsiblings": 6722,
      "Queen": 6723,
      "Ġbeam": 6724,
      "Ġpeacefully": 6725,
      "Ġdef": 6726,
      "Ġsource": 6727,
      "Ġbatteries": 6728,
      "ouch": 6729,
      "anging": 6730,
      "Ġsprinkled": 6731,
      "atur": 6732,
      "ndpare": 6733,
      "Ġscratches": 6734,
      "Ġstomped": 6735,
      "Ġbackwards": 6736,
      "Ġconcer": 6737,
      "Ġpointy": 6738,
      "Ġgrowls": 6739,
      "ĠOlive": 6740,
      "Ġmaterials": 6741,
      "Ġcor": 6742,
      "ĠEl": 6743,
      "Ġwilling": 6744,
      "immering": 6745,
      "ĠLarry": 6746,
      "Ġhoriz": 6747,
      "Ġobjects": 6748,
      "Ġdeserve": 6749,
      "ĠSnuggles": 6750,
      "Ġmushrooms": 6751,
      "Ġornaments": 6752,
      "Ġpuppies": 6753,
      "ĠGigi": 6754,
      "Ġcuddly": 6755,
      "Ġhorizon": 6756,
      "Ġpassen": 6757,
      "Ġsquares": 6758,
      "Dan": 6759,
      "ounce": 6760,
      "Ġscrews": 6761,
      "Ġartist": 6762,
      "ĠMira": 6763,
      "Ġgrabbing": 6764,
      "cers": 6765,
      "Ġtemper": 6766,
      "ÅĵYouÃ¢": 6767,
      "ky": 6768,
      "Ġlosing": 6769,
      "Ġwadd": 6770,
      "Ġtiptoed": 6771,
      "ĠSophia": 6772,
      "ishy": 6773,
      "ĠwonÃ¢": 6774,
      "Ġrivers": 6775,
      "Ġaren": 6776,
      "Ġfact": 6777,
      "Ġchip": 6778,
      "An": 6779,
      "Great": 6780,
      "Ġhus": 6781,
      "Ġgrandpare": 6782,
      "Ġgrassy": 6783,
      "igning": 6784,
      "Ġrising": 6785,
      "Ġraindrops": 6786,
      "Ġdarling": 6787,
      "Ġdollhouse": 6788,
      "alph": 6789,
      "Ġsnowmen": 6790,
      "Ġtempt": 6791,
      "ntil": 6792,
      "Ġdamage": 6793,
      "ĠMickey": 6794,
      "Ġchop": 6795,
      "Ġamong": 6796,
      "Ġplayers": 6797,
      "ĠRock": 6798,
      "Ġstudents": 6799,
      "Ġnoses": 6800,
      "Ġbeloved": 6801,
      "Ru": 6802,
      "ongr": 6803,
      "cl": 6804,
      "Ġrip": 6805,
      "Ġavoid": 6806,
      "Pat": 6807,
      "Ġpromises": 6808,
      "Ġrepa": 6809,
      "oey": 6810,
      "iece": 6811,
      "Ġhides": 6812,
      "kend": 6813,
      "ongratul": 6814,
      "dri": 6815,
      "Ġgross": 6816,
      "Ġtreehouse": 6817,
      "Ġheading": 6818,
      "rrrr": 6819,
      "Ġastron": 6820,
      "Ġfears": 6821,
      "Ġweekend": 6822,
      "Have": 6823,
      "mallow": 6824,
      "ades": 6825,
      "arshmallow": 6826,
      "Roar": 6827,
      "Ġonions": 6828,
      "ĠLena": 6829,
      "ĠFinn": 6830,
      "Ġrewarded": 6831,
      "Ġrepaired": 6832,
      "Ġstool": 6833,
      "Ġpans": 6834,
      "Ġhusband": 6835,
      "Ġforgiven": 6836,
      "ĠQueen": 6837,
      "Ġlimes": 6838,
      "Ġtramp": 6839,
      "Ġsale": 6840,
      "Ġsparks": 6841,
      "Ġneighbours": 6842,
      "Ġastronaut": 6843,
      "For": 6844,
      "oor": 6845,
      "ĠBinky": 6846,
      "ĠAbbie": 6847,
      "ĠMikey": 6848,
      "Ġslammed": 6849,
      "Ġwindy": 6850,
      "Fin": 6851,
      "Ġunpacked": 6852,
      "Ġmeals": 6853,
      "Ġforgets": 6854,
      "Ġafford": 6855,
      "--": 6856,
      "Ġaud": 6857,
      "Ġrecipe": 6858,
      "Ġseparated": 6859,
      "Ġbodies": 6860,
      "Ġspikes": 6861,
      "Ġdreamt": 6862,
      "Ġwraps": 6863,
      "Ġmer": 6864,
      "Ġreass": 6865,
      "Ġuns": 6866,
      "Ġtrampoline": 6867,
      "Ġdads": 6868,
      "Ġache": 6869,
      "Ew": 6870,
      "wk": 6871,
      "Ġimagining": 6872,
      "Ġpresses": 6873,
      "Ġzebras": 6874,
      "Ġcenter": 6875,
      "Tr": 6876,
      "Ġtapped": 6877,
      "ĠZip": 6878,
      "Ġwarnings": 6879,
      "Ġcreations": 6880,
      "ael": 6881,
      "Ġmarshmallow": 6882,
      "itted": 6883,
      "ĠRemember": 6884,
      "Ġforks": 6885,
      "Ġincluding": 6886,
      "Ġtouc": 6887,
      "Ġadult": 6888,
      "Ġprinting": 6889,
      "Ġmagician": 6890,
      "ments": 6891,
      "Meow": 6892,
      "ĠSparky": 6893,
      "yes": 6894,
      "Baby": 6895,
      "uzzy": 6896,
      "Ġprett": 6897,
      "Ġdecorating": 6898,
      "Ġwishing": 6899,
      "Ġheavier": 6900,
      "Ġtemperature": 6901,
      "ne": 6902,
      "ichael": 6903,
      "Ġrustling": 6904,
      "Boo": 6905,
      "Ġwrink": 6906,
      "int": 6907,
      "child": 6908,
      "Ġrefu": 6909,
      "ĠEmmy": 6910,
      "Ġcorners": 6911,
      "ably": 6912,
      "Clara": 6913,
      "Ġdollars": 6914,
      "Ġsailors": 6915,
      "Ġhesitant": 6916,
      "ĠHoot": 6917,
      "Ġcousin": 6918,
      "Wh": 6919,
      "ĠEls": 6920,
      "ition": 6921,
      "Ġintrigued": 6922,
      "Ġplans": 6923,
      "Ġdiscussed": 6924,
      "Oops": 6925,
      "Woof": 6926,
      "pr": 6927,
      "Ġsurroundings": 6928,
      "Ġprettier": 6929,
      "Ġhops": 6930,
      "Ġaudience": 6931,
      "fall": 6932,
      "Ġhawk": 6933,
      "Ġstain": 6934,
      "Ġslices": 6935,
      "aker": 6936,
      "Ġbows": 6937,
      "Ġwiping": 6938,
      "Ġenthusi": 6939,
      "imon": 6940,
      "Ġneatly": 6941,
      "Ġsnuggle": 6942,
      "cky": 6943,
      "Ġarr": 6944,
      "Ġage": 6945,
      "Ġsnowfl": 6946,
      "Ġgasp": 6947,
      "Ġfeeding": 6948,
      "Ġenthusiasm": 6949,
      "Ġcoup": 6950,
      "Ġpecked": 6951,
      "ĠJay": 6952,
      "Ġtails": 6953,
      "Ġplanning": 6954,
      "Ġgranted": 6955,
      "sty": 6956,
      "unched": 6957,
      "opsy": 6958,
      "Ġstreets": 6959,
      "Ġgri": 6960,
      "Ġblocking": 6961,
      "Ġdesigned": 6962,
      "ĠRover": 6963,
      "Katie": 6964,
      "Pe": 6965,
      "using": 6966,
      "llen": 6967,
      "Ġhelpers": 6968,
      "Maria": 6969,
      "Ġ10": 6970,
      "ĠBee": 6971,
      "Ġreflection": 6972,
      "Bill": 6973,
      "Ġgobbled": 6974,
      "Ġscamp": 6975,
      "ĠAsh": 6976,
      "ÅĵMy": 6977,
      "Ġcounts": 6978,
      "Ġminerals": 6979,
      "arrow": 6980,
      "Ġslower": 6981,
      "ĠBluey": 6982,
      "Ġgrandchild": 6983,
      "Ġscrewdri": 6984,
      "Ġhandsome": 6985,
      "Ġborrowed": 6986,
      "Ġleaning": 6987,
      "Ġwoof": 6988,
      "Ġtwice": 6989,
      "Whee": 6990,
      "itude": 6991,
      "Ġdet": 6992,
      "Ġearn": 6993,
      "Ġdod": 6994,
      "ĠDr": 6995,
      "Ġdived": 6996,
      "Ġtriangles": 6997,
      "Ġchos": 6998,
      "ĠPam": 6999,
      "Ġtouches": 7000,
      "Ġchosen": 7001,
      "Ġreason": 7002,
      "Ġremembering": 7003,
      "hog": 7004,
      "Ġhour": 7005,
      "Ġge": 7006,
      "Ġnibb": 7007,
      "Ġpeppers": 7008,
      "Ġthrown": 7009,
      "Ġzipping": 7010,
      "ĠThose": 7011,
      "ĠLaura": 7012,
      "Ġshrinking": 7013,
      "Ġpraying": 7014,
      "Fo": 7015,
      "Yummy": 7016,
      "Ġwobbled": 7017,
      "Ġpuppet": 7018,
      "Ġhitting": 7019,
      "Ġspong": 7020,
      "ertain": 7021,
      "Ġcouple": 7022,
      "Jul": 7023,
      "Ġcond": 7024,
      "Ġsunflowers": 7025,
      "Ġfeast": 7026,
      "ushing": 7027,
      "Ġheroes": 7028,
      "Ġrequested": 7029,
      "jo": 7030,
      "Ġnine": 7031,
      "ĠJune": 7032,
      "Ġstarfish": 7033,
      "Ġtunnels": 7034,
      "Ġfamiliar": 7035,
      "eds": 7036,
      "ĠTodd": 7037,
      "Ġshops": 7038,
      "Ġcorre": 7039,
      "ĠThanks": 7040,
      "Ġrobber": 7041,
      "Ġlungs": 7042,
      "Surpr": 7043,
      "Ġdances": 7044,
      "Ġspreading": 7045,
      "ĠUntil": 7046,
      "Tw": 7047,
      "Ġwag": 7048,
      "ĠCra": 7049,
      "otten": 7050,
      "Ġforgetting": 7051,
      "Ġspoonful": 7052,
      "Ġscrewdriver": 7053,
      "vil": 7054,
      "Ġaside": 7055,
      "Ġdelivering": 7056,
      "ĠFriends": 7057,
      "Ġgrandparents": 7058,
      "ido": 7059,
      "ĠMilo": 7060,
      "aster": 7061,
      "Ġgreeted": 7062,
      "Ġcoloring": 7063,
      "Ġbuzzed": 7064,
      "Ġbaths": 7065,
      "Ġhopeful": 7066,
      "Ġpreparing": 7067,
      "oni": 7068,
      "ccoon": 7069,
      "Ġraccoon": 7070,
      "ĠNick": 7071,
      "Ġmuscle": 7072,
      "Ġpotion": 7073,
      "ĠNobody": 7074,
      "Ġsuperheroes": 7075,
      "rey": 7076,
      "iley": 7077,
      "Ġcuriously": 7078,
      "Ġbreathed": 7079,
      "Ġtiss": 7080,
      "Ġrotten": 7081,
      "Ġcoc": 7082,
      "Ġhedgehog": 7083,
      "Ġmesmerized": 7084,
      "Ġposs": 7085,
      "Ġembarrass": 7086,
      "By": 7087,
      "Miss": 7088,
      "ippy": 7089,
      "ados": 7090,
      "Ġgardener": 7091,
      "ounced": 7092,
      "Ġseaw": 7093,
      "Ġlifts": 7094,
      "ĠStella": 7095,
      "Ġdie": 7096,
      "arac": 7097,
      "ĠRyan": 7098,
      "Ġsports": 7099,
      "Ducky": 7100,
      "Our": 7101,
      "ae": 7102,
      "Ġsofter": 7103,
      "Ġblast": 7104,
      "Ġdaring": 7105,
      "armer": 7106,
      "Ġleast": 7107,
      "Ġmerry": 7108,
      "Ġcrashing": 7109,
      "fly": 7110,
      "ĠSun": 7111,
      "Ġvanilla": 7112,
      "Ġthud": 7113,
      "ĠFrog": 7114,
      "ĠSc": 7115,
      "ently": 7116,
      "ters": 7117,
      "ĠListen": 7118,
      "Ġbully": 7119,
      "Ġsneezing": 7120,
      "Ġshaped": 7121,
      "Ġplain": 7122,
      "Ġflas": 7123,
      "Ġstands": 7124,
      "Ġnecklaces": 7125,
      "ĠRobert": 7126,
      "Ġplucked": 7127,
      "fus": 7128,
      "ĠMartha": 7129,
      "Ġgeese": 7130,
      "Ġsponge": 7131,
      "Ġtodd": 7132,
      "Ġnur": 7133,
      "Ġneare": 7134,
      "Ġchanging": 7135,
      "Ġsniffs": 7136,
      "the": 7137,
      "Ġpolar": 7138,
      "Ġtested": 7139,
      "Ġsewing": 7140,
      "Ġpens": 7141,
      "Ġsqueak": 7142,
      "Ġwiggle": 7143,
      "Ġguests": 7144,
      "Ġseaweed": 7145,
      "Ġtalks": 7146,
      "ĠFire": 7147,
      "Ġpuff": 7148,
      "Ġwhispers": 7149,
      "Ġscraped": 7150,
      "Ġhonked": 7151,
      "Ġfirefighter": 7152,
      "Ġonward": 7153,
      "ĠWendy": 7154,
      "Ġglued": 7155,
      "Nemo": 7156,
      "Ġposter": 7157,
      "Ġnapkins": 7158,
      "cused": 7159,
      "Ġmunch": 7160,
      "Ġworn": 7161,
      "Ġcharac": 7162,
      "ĠEx": 7163,
      "Ġfocused": 7164,
      "Ġrespected": 7165,
      "Ġflavors": 7166,
      "iment": 7167,
      "Ġalien": 7168,
      "ÅĵWell": 7169,
      "Ġwarmer": 7170,
      "Ġcraft": 7171,
      "Ġthroughout": 7172,
      "Ġpanicked": 7173,
      "ĠAbi": 7174,
      "Ġsuffering": 7175,
      "ĠMaya": 7176,
      "Blue": 7177,
      "Ġjoining": 7178,
      "Ġexpress": 7179,
      "Ġmoo": 7180,
      "Ġflight": 7181,
      "ÅĵMom": 7182,
      "ĠZoey": 7183,
      "Ġmarshmallows": 7184,
      "ĠStar": 7185,
      "Ġavocados": 7186,
      "Ġskunk": 7187,
      "Ġmatters": 7188,
      "Ġjoyful": 7189,
      "ĠOur": 7190,
      "ĠGranny": 7191,
      "ĠSqueaky": 7192,
      "ĠTake": 7193,
      "Ġgest": 7194,
      "Ġrespond": 7195,
      "Ġdrivers": 7196,
      "ĠBirthday": 7197,
      "Ġropes": 7198,
      "Ġspins": 7199,
      "Ġpops": 7200,
      "Ġbells": 7201,
      "ugs": 7202,
      "ĠKiki": 7203,
      "ĠOnly": 7204,
      "Ġrefreshing": 7205,
      "Sadly": 7206,
      "Ġscampered": 7207,
      "stick": 7208,
      "Su": 7209,
      "bird": 7210,
      "urious": 7211,
      "allowed": 7212,
      "Ġswallowed": 7213,
      "Ġmints": 7214,
      "Tweety": 7215,
      "Ġoh": 7216,
      "Ġslips": 7217,
      "Ġstrongest": 7218,
      "Ġlessons": 7219,
      "ĠSadie": 7220,
      "Ġwrigg": 7221,
      "Ġgrows": 7222,
      "Ġincreased": 7223,
      "ĠthatÃ¢": 7224,
      "Ġcrew": 7225,
      "Quick": 7226,
      "Ġdrawn": 7227,
      "retty": 7228,
      "Ġdefe": 7229,
      "Ġencourag": 7230,
      "Ġleapt": 7231,
      "Very": 7232,
      "Ġpours": 7233,
      "Ġocc": 7234,
      "ĠStay": 7235,
      "Ġsending": 7236,
      "Ġresisted": 7237,
      "plash": 7238,
      "Ġfreedom": 7239,
      "Br": 7240,
      "Ġtossed": 7241,
      "Ġscen": 7242,
      "Ġroars": 7243,
      "Ġbiting": 7244,
      "years": 7245,
      "...\"": 7246,
      "ĠOwl": 7247,
      "ino": 7248,
      "Ġtrot": 7249,
      "Ġdancers": 7250,
      "Ġdrawers": 7251,
      "Ġcausing": 7252,
      "Ġleads": 7253,
      "Back": 7254,
      "Ġdip": 7255,
      "Ġpeck": 7256,
      "Ġwobbly": 7257,
      "Ġspices": 7258,
      "Ġwatering": 7259,
      "Ġexplo": 7260,
      "ĠBessie": 7261,
      "bba": 7262,
      "Ġperformed": 7263,
      "Ġtwisty": 7264,
      "Ġrout": 7265,
      "ĠChe": 7266,
      "Ġswords": 7267,
      "ĠJacky": 7268,
      "Ġdresser": 7269,
      "Ġyielded": 7270,
      "Ġwaddled": 7271,
      "Ġtissue": 7272,
      "Ġguide": 7273,
      "Ġunsure": 7274,
      "Ġnood": 7275,
      "Ġproper": 7276,
      "while": 7277,
      "Ġsteady": 7278,
      "Ġspat": 7279,
      "ection": 7280,
      "Ġtwinkled": 7281,
      "lets": 7282,
      "Ġnervously": 7283,
      "Ġtrembled": 7284,
      "irrel": 7285,
      "Ġevil": 7286,
      "Ġdropping": 7287,
      "Ġgarb": 7288,
      "Ġstacked": 7289,
      "Ġfirefly": 7290,
      "ĠJanie": 7291,
      "Jerry": 7292,
      "ĠLove": 7293,
      "Ġdoorway": 7294,
      "Ruby": 7295,
      "Ġgarbage": 7296,
      "cake": 7297,
      "Ġwakes": 7298,
      "Ġpound": 7299,
      "Ġgears": 7300,
      "Ġsan": 7301,
      "roken": 7302,
      "Ġamount": 7303,
      "Ġprove": 7304,
      "Ġquarreling": 7305,
      "iona": 7306,
      "Ġmonths": 7307,
      "Ġpennies": 7308,
      "Ġlifting": 7309,
      "Ġtoaster": 7310,
      "but": 7311,
      "ĠHoney": 7312,
      "Ġsquishy": 7313,
      "Ġtables": 7314,
      "Ġgiggles": 7315,
      "Ġaimed": 7316,
      "Ġplaytime": 7317,
      "Ġclues": 7318,
      "Ġcosy": 7319,
      "ĠZara": 7320,
      "Ġwept": 7321,
      "Ġappreciation": 7322,
      "ĠRobbie": 7323,
      "ĠJudy": 7324,
      "Ġechoed": 7325,
      "please": 7326,
      "onna": 7327,
      "Bet": 7328,
      "vant": 7329,
      "Ġmate": 7330,
      "ĠBaa": 7331,
      "Ġoffic": 7332,
      "ĠThatÃ¢": 7333,
      "Ġfits": 7334,
      "Ġsharks": 7335,
      "Ġfirmly": 7336,
      "Ġdesigns": 7337,
      "ĠMeg": 7338,
      "Ġbehaving": 7339,
      "Ġsank": 7340,
      "Ġfaded": 7341,
      "Ġsadd": 7342,
      "Ġoysters": 7343,
      "mates": 7344,
      "upt": 7345,
      "ÅĵBut": 7346,
      "Ġgrandd": 7347,
      "Ġpigeons": 7348,
      "Ġloading": 7349,
      "Frank": 7350,
      "Kim": 7351,
      "Ġpins": 7352,
      "Ġrushing": 7353,
      "Ġpolitely": 7354,
      "Ġpostman": 7355,
      "eel": 7356,
      "ĊĊ": 7357,
      "Ġsy": 7358,
      "Ġnotes": 7359,
      "Ġscient": 7360,
      "ĠWally": 7361,
      "Ġbravest": 7362,
      "Ġfleas": 7363,
      "ĠFrosty": 7364,
      "Ġscientist": 7365,
      "ody": 7366,
      "Ġprob": 7367,
      "ĠLi": 7368,
      "ÅĵWhere": 7369,
      "Ġduckling": 7370,
      "ÅĵIf": 7371,
      "Watch": 7372,
      "Ġmanag": 7373,
      "Ġmaster": 7374,
      "Ġprobably": 7375,
      "fire": 7376,
      "Ġshady": 7377,
      "ĠFlopsy": 7378,
      "lves": 7379,
      "ĠWell": 7380,
      "ĠFarmer": 7381,
      "ÅĵNow": 7382,
      "Ġencouraging": 7383,
      "Ġplayroom": 7384,
      "Ġblinking": 7385,
      "ĠFido": 7386,
      "Ġconfl": 7387,
      "Ġseller": 7388,
      "Ġreversed": 7389,
      "Ġpassengers": 7390,
      "Listen": 7391,
      "Mine": 7392,
      "Ġrobots": 7393,
      "Ġfrowning": 7394,
      "Ġsurrendered": 7395,
      "Ġ2": 7396,
      "Ġgonna": 7397,
      "Ġovercome": 7398,
      "eezes": 7399,
      "Like": 7400,
      "anwhile": 7401,
      "antha": 7402,
      "bbling": 7403,
      "Ġties": 7404,
      "Ġnuzz": 7405,
      "ppies": 7406,
      "Ġthoughts": 7407,
      "During": 7408,
      "broken": 7409,
      "Ġcertain": 7410,
      "cher": 7411,
      "Ġcongratul": 7412,
      "Ġkittens": 7413,
      "idey": 7414,
      "Ġnearly": 7415,
      "Ġtricycle": 7416,
      "Ġhealing": 7417,
      "espite": 7418,
      "Ġshown": 7419,
      "ĠGreen": 7420,
      "Ġhumans": 7421,
      "Mad": 7422,
      "Tony": 7423,
      "Ġbits": 7424,
      "rrr": 7425,
      "Ġresults": 7426,
      "?!\"": 7427,
      "oke": 7428,
      "aying": 7429,
      "ĠMouse": 7430,
      "Ġreun": 7431,
      "Ġcobwebs": 7432,
      "Ġinj": 7433,
      "Ġcolder": 7434,
      "now": 7435,
      "meal": 7436,
      "Ġpumpkins": 7437,
      "Ġbreathing": 7438,
      "ĠAng": 7439,
      "Ġscored": 7440,
      "Ġflown": 7441,
      "Ġwaterfall": 7442,
      "Ġunw": 7443,
      "ĠRay": 7444,
      "Ġtwisting": 7445,
      "Follow": 7446,
      "Ġtuck": 7447,
      "ĠTuna": 7448,
      "Ġslither": 7449,
      "Ġcushions": 7450,
      "Ġbehavior": 7451,
      "ening": 7452,
      "Ġadults": 7453,
      "Ġwarri": 7454,
      "Ġtighter": 7455,
      "alloween": 7456,
      "Ġaction": 7457,
      "Ġpaths": 7458,
      "ĠAlong": 7459,
      "Even": 7460,
      "dress": 7461,
      "Ġcoug": 7462,
      "ÅĵOkay": 7463,
      "Ġsqueezing": 7464,
      "Ġoatmeal": 7465,
      "Ġthorns": 7466,
      "da": 7467,
      "ĠHalloween": 7468,
      "rying": 7469,
      "Ġsweetest": 7470,
      "Ġangels": 7471,
      "Ġstreamers": 7472,
      "ĠUnder": 7473,
      "ĠAli": 7474,
      "Ġforgiving": 7475,
      "Abigail": 7476,
      "Ġconvers": 7477,
      "Ġdistract": 7478,
      "Ġgesture": 7479,
      "Ġnoodles": 7480,
      "Ġanger": 7481,
      "manda": 7482,
      "Ġpassports": 7483,
      "Ġdefin": 7484,
      "ca": 7485,
      "Ġund": 7486,
      "steps": 7487,
      "asty": 7488,
      "Ġblocked": 7489,
      "Ġdamaged": 7490,
      "Ġmerma": 7491,
      "fia": 7492,
      "Ġnapping": 7493,
      "Ġbuses": 7494,
      "Ġperforming": 7495,
      "Ġrainy": 7496,
      "Ġedges": 7497,
      "Ġcoral": 7498,
      "Ġfrowns": 7499,
      "Ġyum": 7500,
      "Ġcleaner": 7501,
      "Ġbandages": 7502,
      "Ġpuzzled": 7503,
      "Ġaccomplished": 7504,
      "Ġfant": 7505,
      "Ġlaying": 7506,
      "Ġfootsteps": 7507,
      "Ġcrossing": 7508,
      "Ġsymbols": 7509,
      "Ġinstruments": 7510,
      "ĠSquirrel": 7511,
      "Ġni": 7512,
      "Ġelf": 7513,
      "Ġpays": 7514,
      "Alright": 7515,
      "Ġtil": 7516,
      "Ġreminding": 7517,
      "Ġwider": 7518,
      "Mimi": 7519,
      "Ġsnort": 7520,
      "Ġfinishing": 7521,
      "Ġheartbroken": 7522,
      "Ġquieter": 7523,
      "Ġtravels": 7524,
      "Ġtoddler": 7525,
      "ÅĵPlease": 7526,
      "Ġsails": 7527,
      "Ġignoring": 7528,
      "Ġshovels": 7529,
      "Ġconnected": 7530,
      "Ted": 7531,
      "Ġsou": 7532,
      "Ġpoppies": 7533,
      "Ġcottage": 7534,
      "Ġsnowflakes": 7535,
      "found": 7536,
      "Ġrather": 7537,
      "Ġrains": 7538,
      "Ġhairdress": 7539,
      "Beep": 7540,
      "Ġcommun": 7541,
      "Ġgranddaughter": 7542,
      "âĤ¬,": 7543,
      "Ġsmallest": 7544,
      "Ġpackages": 7545,
      "Ġbattle": 7546,
      "Ġpedaled": 7547,
      "ĠAmelia": 7548,
      "Ġdefinitely": 7549,
      "Ġkings": 7550,
      "ĠEva": 7551,
      "Ġrepeating": 7552,
      "Ġheight": 7553,
      "Ġchopped": 7554,
      "Ġsuggestion": 7555,
      "Ġsweep": 7556,
      "Ġbrushing": 7557,
      "Ġwithin": 7558,
      "Ġhanding": 7559,
      "ĠSpidey": 7560,
      "Surprise": 7561,
      "Take": 7562,
      "Ġais": 7563,
      "Ġsoaking": 7564,
      "Ġslipping": 7565,
      "ĠUp": 7566,
      "Ġappreciated": 7567,
      "cent": 7568,
      "ider": 7569,
      "Ġspies": 7570,
      "Ġtoward": 7571,
      "Ġhumming": 7572,
      "Ġtravelling": 7573,
      "Ġhairdresser": 7574,
      "whe": 7575,
      "onnie": 7576,
      "Ġease": 7577,
      "Ġsever": 7578,
      "ĠJackie": 7579,
      "ĠDavey": 7580,
      "ĠQuick": 7581,
      "Ġreassured": 7582,
      "onies": 7583,
      "Ġcuddles": 7584,
      "Ġcotton": 7585,
      "Ġfantastic": 7586,
      "Ġseveral": 7587,
      "Ġtipped": 7588,
      "ĠIm": 7589,
      "Ġbru": 7590,
      "ÅĵOf": 7591,
      "Ġfills": 7592,
      "Ġtablet": 7593,
      "Steve": 7594,
      "Ġbracelets": 7595,
      "Ġcowboy": 7596,
      "Ġgenie": 7597,
      "Ġsniffing": 7598,
      "Ġsuffered": 7599,
      "ĠChris": 7600,
      "ĠBecause": 7601,
      "ddie": 7602,
      "Ġbelts": 7603,
      "Ġdrown": 7604,
      "Ġcloudy": 7605,
      "Ġpaintbrush": 7606,
      "Ġdisturbing": 7607,
      "Ġofficers": 7608,
      "Ġtying": 7609,
      "ighting": 7610,
      "Ġfocus": 7611,
      "ĠAlthough": 7612,
      "Ġpunishment": 7613,
      "Ġresponsib": 7614,
      "Excited": 7615,
      "perate": 7616,
      "Ġchanges": 7617,
      "Ġbusiness": 7618,
      "ĠPatch": 7619,
      "Ġlending": 7620,
      "Ġbless": 7621,
      "onse": 7622,
      "ĠGina": 7623,
      "ĠKaren": 7624,
      "Ġresponse": 7625,
      "Ġluckily": 7626,
      "Ġoccas": 7627,
      "Since": 7628,
      "erk": 7629,
      "Ġafar": 7630,
      "Ġencount": 7631,
      "Ġsurfing": 7632,
      "Ġcorrectly": 7633,
      "isions": 7634,
      "anie": 7635,
      "Ġstitches": 7636,
      "Ġexplorer": 7637,
      "athy": 7638,
      "Ġsurv": 7639,
      "Ġwisely": 7640,
      "Ġrisks": 7641,
      "David": 7642,
      "ibbit": 7643,
      "ĠSimon": 7644,
      "Ġyel": 7645,
      "ĠMichael": 7646,
      "Whenever": 7647,
      "Ġbanged": 7648,
      "inkle": 7649,
      "Ġaddress": 7650,
      "Ġmagnif": 7651,
      "Ġarranged": 7652,
      "Ġyelped": 7653,
      "Ġnasty": 7654,
      "ĠMabel": 7655,
      "Ġreapp": 7656,
      "ĠFuzzy": 7657,
      "Ġefforts": 7658,
      "Ġconflict": 7659,
      "Jamie": 7660,
      "issa": 7661,
      "Ġelbow": 7662,
      "Ġcomforting": 7663,
      "undred": 7664,
      "Hannah": 7665,
      "Ġdump": 7666,
      "Ġflipped": 7667,
      "Ġvines": 7668,
      "ading": 7669,
      "Ġgoodby": 7670,
      "flies": 7671,
      "Ġapologised": 7672,
      "Ġsuits": 7673,
      "Ġloops": 7674,
      "Anne": 7675,
      "Ġvehicles": 7676,
      "Ġlicking": 7677,
      "Ġinspired": 7678,
      "Ġponies": 7679,
      "Ġknots": 7680,
      "Ġfinal": 7681,
      "Ġstopping": 7682,
      "Ġworrying": 7683,
      "Ġbelieving": 7684,
      "Ġmailed": 7685,
      "Ġgoodbyes": 7686,
      "iel": 7687,
      "Ġsill": 7688,
      "Ġnewfound": 7689,
      "ails": 7690,
      "Ġpleaded": 7691,
      "abby": 7692,
      "Ġtar": 7693,
      "ÅĵHey": 7694,
      "sol": 7695,
      "Ġfishes": 7696,
      "Ġpurr": 7697,
      "ĠX": 7698,
      "Ġbraver": 7699,
      "Ġdespite": 7700,
      "erpiece": 7701,
      "Ġcampfire": 7702,
      "Ġtrotted": 7703,
      "Ġdarl": 7704,
      "ooky": 7705,
      "Ġcheers": 7706,
      "Ġspits": 7707,
      "Ġreunited": 7708,
      "Ġdarlings": 7709,
      "isc": 7710,
      "Ġjars": 7711,
      "Ġpeas": 7712,
      "Ġsurfboard": 7713,
      "iza": 7714,
      "Ġtasting": 7715,
      "Ġunderstands": 7716,
      "Ġdriveway": 7717,
      "Ġgazing": 7718,
      "ĠLouise": 7719,
      "ĠTry": 7720,
      "rian": 7721,
      "ecca": 7722,
      "dding": 7723,
      "ĠPippin": 7724,
      "pen": 7725,
      "Ġpuck": 7726,
      "Ġwhose": 7727,
      "Ġwobble": 7728,
      "acles": 7729,
      "Ġawoke": 7730,
      "Ġsweat": 7731,
      "ĠMaddie": 7732,
      "Ġcustomers": 7733,
      "Ġnurses": 7734,
      "eeling": 7735,
      "Vroom": 7736,
      "ĠOkay": 7737,
      "Ġlies": 7738,
      "Ġdecisions": 7739,
      "Ġmarve": 7740,
      "Goodnight": 7741,
      "Ġpresented": 7742,
      "Ġencouragement": 7743,
      "vroom": 7744,
      "Ġlent": 7745,
      "Ġmood": 7746,
      "Ġsav": 7747,
      "Ġstumble": 7748,
      "ĠRalph": 7749,
      "Ġcollap": 7750,
      "Ġtarget": 7751,
      "Ġcoach": 7752,
      "Ġconqu": 7753,
      "Ġships": 7754,
      "Ġsimply": 7755,
      "Ġcongratulated": 7756,
      "Ġmemb": 7757,
      "Ġsurprising": 7758,
      "acle": 7759,
      "Ġsmelling": 7760,
      "ivia": 7761,
      "Ġsupported": 7762,
      "Chloe": 7763,
      "Ġseashells": 7764,
      "Ġmembers": 7765,
      "Get": 7766,
      "inted": 7767,
      "Ġbirdhouse": 7768,
      "ĠDory": 7769,
      "Ġantic": 7770,
      "Ġprick": 7771,
      "Ġcrowns": 7772,
      "iens": 7773,
      "Ġaliens": 7774,
      "Ġstored": 7775,
      "Ġcovering": 7776,
      "Ġpeeled": 7777,
      "Ġcalmly": 7778,
      "Ġdelayed": 7779,
      "Ġweeds": 7780,
      "Ġsped": 7781,
      "Ġbaskets": 7782,
      "Mira": 7783,
      "Ġexcept": 7784,
      "Ġartwork": 7785,
      "Ġbothering": 7786,
      "Ġspills": 7787,
      "True": 7788,
      "Ġwrinkled": 7789,
      "Ġgap": 7790,
      "Ġclerk": 7791,
      "ĠElly": 7792,
      "Ġque": 7793,
      "Ġwarmly": 7794,
      "Ġexamining": 7795,
      "Ġmasterpiece": 7796,
      "eedy": 7797,
      "ollen": 7798,
      "Ġannoyed": 7799,
      "uel": 7800,
      "Ġshoo": 7801,
      "Ġswollen": 7802,
      "Ġunfortunately": 7803,
      "Ġbelongings": 7804,
      "Ġscram": 7805,
      "Ġexercises": 7806,
      "Ġdiscussing": 7807,
      "we": 7808,
      "ssss": 7809,
      "Ġjoins": 7810,
      "emma": 7811,
      "Ġimages": 7812,
      "ĠMarie": 7813,
      "worm": 7814,
      "Ġbuddy": 7815,
      "Ġstudent": 7816,
      "Ġwounds": 7817,
      "Bunny": 7818,
      "ms": 7819,
      "ĠFighting": 7820,
      "ĠBubba": 7821,
      "Ġsewed": 7822,
      "Ġtroubles": 7823,
      "Ġburying": 7824,
      "Ġsqueaked": 7825,
      "aturday": 7826,
      "ĠAshley": 7827,
      "Penny": 7828,
      "ĠSaturday": 7829,
      "Ġspy": 7830,
      "agic": 7831,
      "ĠLia": 7832,
      "Ġdonkey": 7833,
      "Ġaware": 7834,
      "ĠBirdy": 7835,
      "Ġconcert": 7836,
      "even": 7837,
      "line": 7838,
      "ris": 7839,
      "wise": 7840,
      "rie": 7841,
      "elie": 7842,
      "ĠRuth": 7843,
      "Ġteachers": 7844,
      "Ġwhistles": 7845,
      "Ġfigures": 7846,
      "attered": 7847,
      "ĠFroggy": 7848,
      "Rachel": 7849,
      "Ġhundred": 7850,
      "Ġdep": 7851,
      "lph": 7852,
      "Ġchilly": 7853,
      "Ġfins": 7854,
      "Ġpurpose": 7855,
      "screen": 7856,
      "Ġnibbled": 7857,
      "Ġwarrior": 7858,
      "crow": 7859,
      "rier": 7860,
      "Ġlapt": 7861,
      "Josh": 7862,
      "ugging": 7863,
      "Ġwindowsill": 7864,
      "Ġtubes": 7865,
      "ongo": 7866,
      "Ġposit": 7867,
      "Ġchocolates": 7868,
      "Ġguessing": 7869,
      "Ġmermaid": 7870,
      "mered": 7871,
      "Ġwasting": 7872,
      "Ġrin": 7873,
      "ammy": 7874,
      "Ġorders": 7875,
      "Ġdiamonds": 7876,
      "Ġspeeding": 7877,
      "ĠSnowman": 7878,
      "Ġexperienced": 7879,
      "father": 7880,
      "ĠAny": 7881,
      "Ġexch": 7882,
      "Ġsquaw": 7883,
      "Ġterrified": 7884,
      "Ġspells": 7885,
      "ĠPippa": 7886,
      "Ġgrip": 7887,
      "Jess": 7888,
      "bell": 7889,
      "rick": 7890,
      "Any": 7891,
      "utter": 7892,
      "ppa": 7893,
      "artled": 7894,
      "ĠWelcome": 7895,
      "Ġtreated": 7896,
      "Ġtapping": 7897,
      "Ġjoked": 7898,
      "Ġtoolbox": 7899,
      "Ġsolving": 7900,
      "Poppy": 7901,
      "hil": 7902,
      "Ġsunscreen": 7903,
      "ĠJoan": 7904,
      "Ġraces": 7905,
      "Ġfires": 7906,
      "ĠDog": 7907,
      "Ġpriz": 7908,
      "Ġmagazines": 7909,
      "Ġadmiration": 7910,
      "Ġglittering": 7911,
      "Am": 7912,
      "ĠJaney": 7913,
      "Ġnibble": 7914,
      "rup": 7915,
      "Ġnodding": 7916,
      "Ġalthough": 7917,
      "ĠWil": 7918,
      "usty": 7919,
      "Ġthanking": 7920,
      "Ġforests": 7921,
      "Ġplanting": 7922,
      "Ġwhispering": 7923,
      "Ġmaterial": 7924,
      "Ġlaptop": 7925,
      "mies": 7926,
      "rily": 7927,
      "order": 7928,
      "amma": 7929,
      "ĠOther": 7930,
      "Ġclassmates": 7931,
      "Ġtires": 7932,
      "ĠRocky": 7933,
      "Ġstall": 7934,
      "Ġspooky": 7935,
      "Ġswap": 7936,
      "Ġuntied": 7937,
      "Ġexpert": 7938,
      "Ġstomp": 7939,
      "Quack": 7940,
      "Ġactivity": 7941,
      "Ġrefuse": 7942,
      "Joy": 7943,
      "aven": 7944,
      "Ġdragonfly": 7945,
      "Ġdisplayed": 7946,
      "Ġqueens": 7947,
      "Rosie": 7948,
      "Ġmaker": 7949,
      "Ġloses": 7950,
      "Ġdisc": 7951,
      "ĠBecky": 7952,
      "Ġinsisting": 7953,
      "Always": 7954,
      "Leave": 7955,
      "Adam": 7956,
      "ighing": 7957,
      "Ġscent": 7958,
      "Ġtweet": 7959,
      "ipes": 7960,
      "Ġfoxes": 7961,
      "Ġgoats": 7962,
      "Ġgrandson": 7963,
      "Ġbackpacks": 7964,
      "Ġoppos": 7965,
      "ĠExcited": 7966,
      "Ġsyrup": 7967,
      "Jessie": 7968,
      "Ke": 7969,
      "ĠAlly": 7970,
      "ilda": 7971,
      "Ġexplains": 7972,
      "Ġscurrying": 7973,
      "Ġscrambled": 7974,
      "Ġbou": 7975,
      "Ġbitten": 7976,
      "Ġdot": 7977,
      "Ġdecl": 7978,
      "ÅĵSee": 7979,
      "ĠKaty": 7980,
      "Ġwiggly": 7981,
      "Ġbeaming": 7982,
      "Ġforgiveness": 7983,
      "Ġbouqu": 7984,
      "Ġhoo": 7985,
      "ÅĵThe": 7986,
      "Ġconvin": 7987,
      "Ġjud": 7988,
      "Ġlabels": 7989,
      "Ġsternly": 7990,
      "Ġopposite": 7991,
      "ÅĵSure": 7992,
      "Ġdiso": 7993,
      "Ġloc": 7994,
      "ument": 7995,
      "ĠDespite": 7996,
      "Ġtrans": 7997,
      "Ġdoorbell": 7998,
      "Ġhunters": 7999,
      "ĠFreddie": 8000,
      "Car": 8001,
      "ĠSplash": 8002,
      "Ġrely": 8003,
      "Ġflips": 8004,
      "Ġnearest": 8005,
      "what": 8006,
      "rest": 8007,
      "Ġrays": 8008,
      "Ġbrightest": 8009,
      "ĠRain": 8010,
      "Ġscarecrow": 8011,
      "Ġstroke": 8012,
      "ĠTessa": 8013,
      "Ġresponded": 8014,
      "Ġencountered": 8015,
      "Dear": 8016,
      "olph": 8017,
      "sm": 8018,
      "ortunately": 8019,
      "Thomas": 8020,
      "Ġtidied": 8021,
      "Ġwealth": 8022,
      "Ġdiscoveries": 8023,
      "udolph": 8024,
      "Ġpupils": 8025,
      "aint": 8026,
      "Ġteles": 8027,
      "Ġghosts": 8028,
      "Ġaeroplanes": 8029,
      "Ġemerged": 8030,
      "iscuit": 8031,
      "Ġtelescope": 8032,
      "ĠMina": 8033,
      "Ġlowered": 8034,
      "ĠPatty": 8035,
      "Ġpandas": 8036,
      "Two": 8037,
      "idence": 8038,
      "ĠDuck": 8039,
      "Ġprayers": 8040,
      "illiam": 8041,
      "gain": 8042,
      "ĠBounce": 8043,
      "ĠFiona": 8044,
      "Ġpeep": 8045,
      "Ġtesting": 8046,
      "Meanwhile": 8047,
      "Ġattacked": 8048,
      "Ġtype": 8049,
      "yl": 8050,
      "Ġting": 8051,
      "Ġpermitted": 8052,
      "Ġvibr": 8053,
      "Ġmatey": 8054,
      "Ġanticip": 8055,
      "Ġtransf": 8056,
      "Ġger": 8057,
      "Ġuntie": 8058,
      "ĠSpeedy": 8059,
      "Ġvegg": 8060,
      "Ġservant": 8061,
      "Ġtwists": 8062,
      "Ġquarre": 8063,
      "Ġcharacters": 8064,
      "Ġcleared": 8065,
      "Ġvisitors": 8066,
      "Stay": 8067,
      "Claire": 8068,
      "Ġicing": 8069,
      "Ġwhimp": 8070,
      "Ġbreaths": 8071,
      "Ġmeowing": 8072,
      "Mat": 8073,
      "Ġsheets": 8074,
      "ĠBow": 8075,
      "Ġcharge": 8076,
      "Ġsweaty": 8077,
      "Ġcrawls": 8078,
[...]
